<pad>	0
<unk>	0
<s>	0
</s>	0
▁t	-0
he	-1
▁a	-2
▁s	-3
▁w	-4
nd	-5
▁the	-6
ed	-7
▁b	-8
▁to	-9
▁and	-10
▁T	-11
▁h	-12
▁f	-13
in	-14
▁wa	-15
re	-16
it	-17
ou	-18
▁l	-19
▁d	-20
▁c	-21
▁p	-22
▁The	-23
ay	-24
▁m	-25
er	-26
▁was	-27
om	-28
▁he	-29
is	-30
ar	-31
▁n	-32
im	-33
on	-34
▁sa	-35
id	-36
ll	-37
▁S	-38
▁ha	-39
▁g	-40
at	-41
ing	-42
ot	-43
en	-44
an	-45
le	-46
or	-47
▁"	-48
ir	-49
▁H	-50
am	-51
▁They	-52
et	-53
▁it	-54
▁th	-55
ig	-56
▁He	-57
il	-58
▁in	-59
▁pl	-60
ow	-61
ver	-62
ri	-63
ut	-64
▁be	-65
▁play	-66
▁u	-67
▁said	-68
▁O	-69
▁Tim	-70
ith	-71
▁day	-72
pp	-73
▁with	-74
▁On	-75
▁y	-76
▁o	-77
oo	-78
ked	-79
▁r	-80
▁I	-81
▁She	-82
▁her	-83
ce	-84
ld	-85
▁his	-86
▁st	-87
ke	-88
▁e	-89
▁L	-90
▁big	-91
nt	-92
ck	-93
very	-94
▁you	-95
st	-96
ve	-97
▁B	-98
end	-99
▁on	-100
▁happ	-101
un	-102
riend	-103
▁friend	-104
all	-105
ily	-106
▁M	-107
▁they	-108
▁we	-109
▁had	-110
▁not	-111
▁li	-112
▁up	-113
▁want	-114
her	-115
▁of	-116
ad	-117
itt	-118
se	-119
▁do	-120
▁happy	-121
▁very	-122
ent	-123
es	-124
▁Lily	-125
▁that	-126
▁saw	-127
▁One	-128
▁A	-129
ould	-130
▁for	-131
▁mom	-132
▁sh	-133
ittle	-134
▁little	-135
▁so	-136
▁Tom	-137
▁she	-138
."	-139
ime	-140
ch	-141
▁nam	-142
▁ne	-143
▁time	-144
▁k	-145
ound	-146
▁there	-147
▁named	-148
▁bo	-149
▁sm	-150
▁were	-151
▁wanted	-152
!"	-153
▁but	-154
out	-155
▁friends	-156
ved	-157
ht	-158
ird	-159
el	-160
al	-161
▁bird	-162
▁an	-163
ake	-164
▁It	-165
▁too	-166
ome	-167
ug	-168
▁went	-169
ide	-170
▁hel	-171
▁wh	-172
▁Once	-173
▁is	-174
ue	-175
▁all	-176
▁help	-177
▁loo	-178
▁lo	-179
ter	-180
▁upon	-181
ry	-182
ore	-183
ind	-184
▁fun	-185
▁toy	-186
get	-187
ill	-188
ame	-189
▁as	-190
▁at	-191
▁j	-192
ra	-193
▁did	-194
gether	-195
▁re	-196
ur	-197
▁together	-198
▁se	-199
ack	-200
▁cat	-201
▁tre	-202
ly	-203
ood	-204
ic	-205
ted	-206
▁dog	-207
▁could	-208
▁can	-209
▁their	-210
ark	-211
?"	-212
ard	-213
ec	-214
▁ball	-215
▁played	-216
▁gir	-217
▁him	-218
▁girl	-219
way	-220
▁ro	-221
▁go	-222
hed	-223
my	-224
▁are	-225
▁le	-226
▁out	-227
▁fr	-228
▁But	-229
ain	-230
▁kn	-231
hen	-232
um	-233
▁them	-234
ax	-235
▁sad	-236
▁W	-237
▁Sue	-238
▁boy	-239
ul	-240
▁tree	-241
other	-242
▁have	-243
▁man	-244
▁Max	-245
▁cl	-246
▁loved	-247
▁looked	-248
oug	-249
▁found	-250
▁sp	-251
▁star	-252
one	-253
▁sc	-254
hing	-255
▁back	-256
▁Ben	-257
own	-258
are	-259
▁like	-260
ful	-261
▁bec	-262
side	-263
▁me	-264
▁Sam	-265
▁park	-266
▁car	-267
ong	-268
op	-269
ight	-270
▁liked	-271
elt	-272
▁would	-273
▁J	-274
▁make	-275
▁la	-276
▁fa	-277
round	-278
▁felt	-279
You	-280
ell	-281
▁see	-282
▁asked	-283
omet	-284
▁new	-285
ag	-286
ared	-287
▁started	-288
ouse	-289
ice	-290
▁no	-291
▁came	-292
▁other	-293
ought	-294
▁al	-295
iled	-296
▁F	-297
▁good	-298
▁ag	-299
▁somet	-300
▁small	-301
▁br	-302
ade	-303
▁Sp	-304
ss	-305
ob	-306
ried	-307
▁say	-308
▁smiled	-309
ings	-310
▁Spot	-311
▁find	-312
▁wor	-313
ia	-314
ty	-315
▁ex	-316
▁put	-317
▁away	-318
▁made	-319
▁from	-320
▁co	-321
ened	-322
▁home	-323
▁what	-324
▁thought	-325
▁something	-326
▁playing	-327
▁every	-328
uc	-329
ook	-330
▁wal	-331
▁mu	-332
arn	-333
ach	-334
▁ran	-335
ile	-336
▁Mia	-337
▁again	-338
ie	-339
ave	-340
▁some	-341
▁laug	-342
▁house	-343
▁fl	-344
dd	-345
▁scared	-346
▁took	-347
▁down	-348
king	-349
▁toys	-350
▁learn	-351
▁pr	-352
ure	-353
ny	-354
▁will	-355
if	-356
ret	-357
ab	-358
▁You	-359
▁box	-360
ick	-361
▁bl	-362
▁your	-363
▁my	-364
▁things	-365
ep	-366
▁around	-367
ish	-368
oud	-369
,"	-370
▁when	-371
▁lived	-372
uck	-373
▁sun	-374
▁fe	-375
as	-376
▁So	-377
▁then	-378
▁sw	-379
▁Mom	-380
us	-381
pped	-382
▁ch	-383
▁ab	-384
ank	-385
ucy	-386
▁lot	-387
▁get	-388
ump	-389
▁Lucy	-390
ist	-391
oth	-392
▁tried	-393
▁D	-394
▁know	-395
ap	-396
▁says	-397
▁got	-398
ited	-399
▁Bob	-400
Th	-401
▁who	-402
ust	-403
▁kne	-404
▁many	-405
nder	-406
▁about	-407
▁pret	-408
▁int	-409
▁red	-410
▁any	-411
▁dec	-412
ace	-413
ive	-414
▁knew	-415
ous	-416
▁more	-417
▁care	-418
ise	-419
▁pic	-420
au	-421
▁po	-422
ally	-423
▁learned	-424
▁water	-425
▁became	-426
qu	-427
▁hug	-428
▁best	-429
▁And	-430
ause	-431
fter	-432
▁gre	-433
▁v	-434
▁E	-435
▁op	-436
▁exc	-437
▁outside	-438
▁laughed	-439
▁un	-440
ways	-441
▁look	-442
urp	-443
ant	-444
▁always	-445
▁because	-446
▁eat	-447
▁show	-448
▁room	-449
▁ho	-450
▁decid	-451
ite	-452
fe	-453
▁decided	-454
▁into	-455
▁jump	-456
▁both	-457
▁pe	-458
▁Then	-459
ers	-460
▁dad	-461
▁one	-462
▁ke	-463
udd	-464
▁nice	-465
▁When	-466
nn	-467
▁fast	-468
▁long	-469
▁excited	-470
▁this	-471
▁feel	-472
Yes	-473
▁run	-474
▁Ann	-475
▁sk	-476
▁told	-477
urpr	-478
▁am	-479
▁inside	-480
▁tr	-481
our	-482
ull	-483
▁mo	-484
iny	-485
▁surpr	-486
▁pretty	-487
ink	-488
▁His	-489
▁sor	-490
▁Fr	-491
▁C	-492
▁take	-493
og	-494
▁sl	-495
▁gave	-496
▁much	-497
hat	-498
▁each	-499
▁rock	-500
▁gra	-501
ara	-502
lew	-503
imal	-504
▁animal	-505
▁str	-506
▁how	-507
ged	-508
etter	-509
▁As	-510
▁Amy	-511
▁need	-512
▁Anna	-513
ven	-514
▁or	-515
▁than	-516
▁tow	-517
▁under	-518
ess	-519
▁sorry	-520
▁old	-521
ge	-522
ised	-523
urt	-524
▁fish	-525
▁cle	-526
▁Sara	-527
▁walked	-528
ro	-529
ast	-530
▁hand	-531
here	-532
ase	-533
▁clo	-534
▁kind	-535
ft	-536
and	-537
▁bear	-538
▁We	-539
▁te	-540
▁happened	-541
urn	-542
▁Her	-543
▁flow	-544
▁food	-545
▁just	-546
▁list	-547
▁animals	-548
▁wat	-549
▁In	-550
▁sky	-551
▁hig	-552
▁didn	-553
▁ide	-554
▁near	-555
ched	-556
▁bug	-557
ine	-558
ving	-559
▁try	-560
▁better	-561
▁From	-562
▁idea	-563
▁fi	-564
▁us	-565
pl	-566
▁sn	-567
▁its	-568
gry	-569
pec	-570
▁tw	-571
▁heard	-572
▁let	-573
ff	-574
ate	-575
▁careful	-576
able	-577
▁share	-578
ex	-579
▁en	-580
Thank	-581
▁stor	-582
more	-583
▁if	-584
▁anymore	-585
ial	-586
▁flew	-587
▁lots	-588
▁fly	-589
ion	-590
▁com	-591
▁spec	-592
▁special	-593
▁never	-594
▁by	-595
▁dan	-596
ream	-597
lf	-598
▁don	-599
▁fo	-600
▁clean	-601
▁bu	-602
▁tal	-603
▁Every	-604
ort	-605
▁gr	-606
ople	-607
▁wind	-608
▁love	-609
rm	-610
▁end	-611
▁even	-612
▁K	-613
▁shiny	-614
ber	-615
▁mag	-616
▁fore	-617
▁over	-618
▁hard	-619
▁cake	-620
ak	-621
udden	-622
▁book	-623
▁bad	-624
▁people	-625
▁fam	-626
▁turn	-627
ady	-628
▁col	-629
pected	-630
▁after	-631
▁surprised	-632
▁safe	-633
▁hurt	-634
Let	-635
▁high	-636
▁proud	-637
uddenly	-638
▁unex	-639
▁door	-640
▁unexpected	-641
imb	-642
▁cu	-643
ble	-644
▁come	-645
▁picked	-646
▁ground	-647
▁climb	-648
▁loud	-649
▁opened	-650
ild	-651
arden	-652
▁garden	-653
▁blue	-654
▁im	-655
▁che	-656
▁give	-657
▁way	-658
hy	-659
▁still	-660
ip	-661
▁gl	-662
ail	-663
▁color	-664
▁thanked	-665
▁ever	-666
▁hugged	-667
▁call	-668
▁far	-669
No	-670
▁P	-671
ummy	-672
▁off	-673
age	-674
▁jumped	-675
▁magic	-676
ough	-677
iz	-678
▁should	-679
▁par	-680
ool	-681
▁family	-682
hes	-683
uff	-684
▁kid	-685
▁smile	-686
▁place	-687
kay	-688
ture	-689
▁now	-690
▁walk	-691
▁great	-692
em	-693
▁strong	-694
ct	-695
▁stay	-696
▁unt	-697
▁sto	-698
▁Suddenly	-699
▁qu	-700
aut	-701
▁forest	-702
▁Jo	-703
dy	-704
▁bro	-705
▁bra	-706
itty	-707
▁until	-708
▁boat	-709
▁frog	-710
▁beaut	-711
ane	-712
▁squ	-713
▁stick	-714
lease	-715
xt	-716
▁next	-717
▁tra	-718
▁N	-719
▁Sally	-720
ning	-721
ies	-722
▁Kitty	-723
iful	-724
▁beautiful	-725
▁happily	-726
▁listen	-727
▁After	-728
▁kids	-729
aking	-730
▁helped	-731
▁app	-732
by	-733
▁story	-734
be	-735
▁picture	-736
▁showed	-737
▁imp	-738
▁dra	-739
▁At	-740
▁clos	-741
▁while	-742
rel	-743
▁rain	-744
unny	-745
pt	-746
▁town	-747
▁everyone	-748
ress	-749
▁being	-750
oy	-751
▁rem	-752
ary	-753
▁mor	-754
▁met	-755
▁called	-756
ree	-757
▁stopped	-758
▁game	-759
Can	-760
▁R	-761
▁hat	-762
uffy	-763
▁ad	-764
▁truck	-765
ger	-766
▁Fin	-767
▁angry	-768
▁open	-769
▁soft	-770
▁wo	-771
▁cry	-772
▁warm	-773
▁yummy	-774
▁Let	-775
▁lost	-776
▁keep	-777
▁Th	-778
▁brave	-779
▁bed	-780
▁doll	-781
▁ate	-782
▁de	-783
ished	-784
▁mouse	-785
▁green	-786
oon	-787
▁Jack	-788
▁Fl	-789
▁watch	-790
It	-791
vent	-792
bit	-793
so	-794
▁hole	-795
▁fell	-796
▁leave	-797
fore	-798
▁also	-799
▁face	-800
▁couldn	-801
▁flowers	-802
▁two	-803
dded	-804
abbit	-805
gan	-806
ock	-807
What	-808
▁noise	-809
▁soon	-810
▁where	-811
irst	-812
owl	-813
iss	-814
▁rabbit	-815
▁slide	-816
az	-817
irrel	-818
▁Fluffy	-819
▁pa	-820
self	-821
▁squirrel	-822
▁pus	-823
▁sat	-824
Hi	-825
▁before	-826
▁kept	-827
▁hands	-828
▁Now	-829
▁store	-830
illy	-831
les	-832
▁hear	-833
▁G	-834
ired	-835
ma	-836
Look	-837
▁use	-838
▁nodded	-839
▁cook	-840
▁birds	-841
uit	-842
ear	-843
▁going	-844
ub	-845
▁funny	-846
▁bus	-847
uch	-848
▁expl	-849
▁Can	-850
▁having	-851
aybe	-852
▁sing	-853
▁pain	-854
▁yell	-855
day	-856
air	-857
▁bre	-858
aug	-859
▁catch	-860
aught	-861
▁fin	-862
ange	-863
▁ey	-864
▁think	-865
leep	-866
▁fix	-867
▁looking	-868
▁work	-869
▁used	-870
▁bunny	-871
▁wr	-872
▁cra	-873
▁pull	-874
▁wait	-875
▁dr	-876
We	-877
▁our	-878
▁sound	-879
▁kit	-880
That	-881
▁has	-882
▁beh	-883
thing	-884
▁mean	-885
▁thr	-886
▁tired	-887
▁flo	-888
▁sunny	-889
ting	-890
▁talk	-891
▁jo	-892
▁pond	-893
ember	-894
led	-895
▁others	-896
ng	-897
chen	-898
▁ask	-899
▁kitchen	-900
Mom	-901
▁dif	-902
▁flower	-903
▁mommy	-904
▁fav	-905
▁party	-906
▁head	-907
▁pie	-908
▁import	-909
▁first	-910
rew	-911
▁z	-912
ello	-913
Hello	-914
▁Do	-915
▁tri	-916
▁Wh	-917
imes	-918
▁real	-919
▁mess	-920
▁cold	-921
joy	-922
▁race	-923
eet	-924
▁eyes	-925
▁sand	-926
ath	-927
▁con	-928
▁remember	-929
▁shared	-930
▁vo	-931
ious	-932
▁right	-933
▁important	-934
▁tall	-935
irt	-936
ac	-937
▁curi	-938
▁moral	-939
orn	-940
▁bright	-941
▁worked	-942
▁okay	-943
▁making	-944
▁ice	-945
▁own	-946
▁duck	-947
▁hop	-948
▁dress	-949
▁enjoy	-950
▁favor	-951
▁Dad	-952
▁cla	-953
Wow	-954
▁curious	-955
▁advent	-956
▁favorite	-957
▁ri	-958
ount	-959
zy	-960
llow	-961
reed	-962
▁bag	-963
▁began	-964
▁hid	-965
▁watched	-966
Don	-967
▁dis	-968
▁hill	-969
▁draw	-970
▁yard	-971
▁This	-972
▁sleep	-973
▁mon	-974
▁thing	-975
bed	-976
▁here	-977
▁move	-978
▁tell	-979
hn	-980
▁night	-981
▁block	-982
▁rest	-983
▁bel	-984
que	-985
ect	-986
▁dark	-987
▁hot	-988
co	-989
▁agreed	-990
▁follow	-991
▁behind	-992
▁John	-993
▁floor	-994
▁pick	-995
▁stop	-996
▁cut	-997
▁hun	-998
▁worry	-999
ster	-1000
▁lion	-1001
▁butter	-1002
▁trees	-1003
▁table	-1004
▁Mr	-1005
ied	-1006
▁sho	-1007
▁grass	-1008
▁surprise	-1009
▁grab	-1010
▁lady	-1011
▁walking	-1012
▁forg	-1013
lly	-1014
▁song	-1015
▁read	-1016
▁sweet	-1017
▁voice	-1018
▁please	-1019
aper	-1020
▁farm	-1021
fere	-1022
▁Bobo	-1023
▁That	-1024
▁top	-1025
▁tail	-1026
▁differe	-1027
▁leaves	-1028
▁cars	-1029
▁tast	-1030
▁colors	-1031
▁shout	-1032
▁Timmy	-1033
▁turned	-1034
ign	-1035
▁hair	-1036
isy	-1037
▁Jane	-1038
▁needed	-1039
▁closer	-1040
▁cried	-1041
ike	-1042
▁laugh	-1043
▁does	-1044
Why	-1045
▁del	-1046
▁wood	-1047
aring	-1048
▁piece	-1049
▁different	-1050
▁wet	-1051
▁yellow	-1052
ered	-1053
▁roll	-1054
▁hungry	-1055
▁touch	-1056
▁friendly	-1057
oom	-1058
ken	-1059
▁full	-1060
▁fire	-1061
▁adventure	-1062
cked	-1063
▁prin	-1064
▁feeling	-1065
▁fruit	-1066
▁cr	-1067
▁per	-1068
▁Mommy	-1069
bo	-1070
▁broken	-1071
ppy	-1072
▁swing	-1073
▁train	-1074
▁dance	-1075
▁pretend	-1076
ached	-1077
bye	-1078
▁paper	-1079
ater	-1080
ient	-1081
▁ready	-1082
▁light	-1083
▁listened	-1084
where	-1085
▁prom	-1086
▁climbed	-1087
▁All	-1088
▁danc	-1089
▁another	-1090
▁gone	-1091
▁only	-1092
sh	-1093
▁butterf	-1094
av	-1095
▁running	-1096
▁plan	-1097
▁swim	-1098
▁blocks	-1099
▁close	-1100
▁smell	-1101
art	-1102
aby	-1103
ndma	-1104
▁dri	-1105
ila	-1106
▁repl	-1107
▁amaz	-1108
oney	-1109
▁Everyone	-1110
▁wonder	-1111
▁hold	-1112
▁sees	-1113
▁pu	-1114
▁slow	-1115
▁helping	-1116
▁reached	-1117
▁Lila	-1118
▁less	-1119
▁goodbye	-1120
af	-1121
▁fight	-1122
▁ant	-1123
▁cool	-1124
▁fair	-1125
ey	-1126
▁glad	-1127
▁cream	-1128
▁pushed	-1129
▁been	-1130
iced	-1131
▁sit	-1132
▁ar	-1133
▁hide	-1134
▁ste	-1135
▁moment	-1136
ather	-1137
▁done	-1138
▁perf	-1139
▁wished	-1140
▁ac	-1141
▁wall	-1142
▁thank	-1143
▁must	-1144
▁baby	-1145
▁buy	-1146
▁Soon	-1147
ash	-1148
▁child	-1149
▁wag	-1150
▁butterfly	-1151
▁fall	-1152
▁build	-1153
irty	-1154
▁balloon	-1155
▁dirty	-1156
icy	-1157
▁bar	-1158
▁apple	-1159
▁dream	-1160
▁window	-1161
▁stuck	-1162
▁trying	-1163
▁explore	-1164
key	-1165
▁might	-1166
▁Just	-1167
▁scary	-1168
ized	-1169
▁snow	-1170
▁din	-1171
▁name	-1172
▁To	-1173
▁bit	-1174
▁doing	-1175
▁looks	-1176
▁win	-1177
▁coming	-1178
▁There	-1179
▁held	-1180
▁mar	-1181
▁quick	-1182
▁underst	-1183
▁spl	-1184
▁tiny	-1185
ames	-1186
avy	-1187
▁clapped	-1188
▁plant	-1189
ott	-1190
▁books	-1191
▁grow	-1192
aisy	-1193
▁cup	-1194
▁replied	-1195
▁bran	-1196
ield	-1197
▁treat	-1198
▁job	-1199
▁chair	-1200
ask	-1201
▁swam	-1202
▁land	-1203
▁reach	-1204
▁shouted	-1205
▁left	-1206
▁air	-1207
▁pink	-1208
▁wise	-1209
▁count	-1210
▁dro	-1211
▁sometimes	-1212
oup	-1213
▁why	-1214
▁through	-1215
▁pulled	-1216
▁cloud	-1217
▁brother	-1218
▁three	-1219
outh	-1220
▁sure	-1221
ix	-1222
▁mouth	-1223
▁fill	-1224
ph	-1225
▁woods	-1226
▁bigger	-1227
ely	-1228
▁owl	-1229
▁waved	-1230
Okay	-1231
room	-1232
▁mat	-1233
▁Inside	-1234
▁stayed	-1235
▁remembered	-1236
▁colorful	-1237
ins	-1238
▁lesson	-1239
▁seen	-1240
▁nest	-1241
ds	-1242
▁clot	-1243
ower	-1244
▁cre	-1245
cle	-1246
▁clothes	-1247
andy	-1248
▁cast	-1249
▁join	-1250
▁grabbed	-1251
Oh	-1252
▁cont	-1253
▁ve	-1254
uddy	-1255
ud	-1256
▁pictures	-1257
▁waited	-1258
▁broke	-1259
▁mus	-1260
▁blew	-1261
▁While	-1262
▁games	-1263
▁paint	-1264
ation	-1265
▁gent	-1266
ucky	-1267
orm	-1268
▁Daisy	-1269
der	-1270
▁Finally	-1271
▁Buddy	-1272
▁enjoyed	-1273
▁likes	-1274
▁quickly	-1275
▁heavy	-1276
▁gif	-1277
▁hopped	-1278
asure	-1279
▁noticed	-1280
ton	-1281
ries	-1282
▁set	-1283
▁world	-1284
▁sea	-1285
▁bott	-1286
▁pot	-1287
lc	-1288
▁turns	-1289
▁alone	-1290
▁bike	-1291
▁anything	-1292
This	-1293
▁spot	-1294
▁miss	-1295
▁pat	-1296
▁arm	-1297
▁mix	-1298
▁year	-1299
pe	-1300
▁everywhere	-1301
".	-1302
▁won	-1303
▁Tommy	-1304
▁black	-1305
▁tight	-1306
▁tower	-1307
amp	-1308
▁ride	-1309
▁himself	-1310
eddy	-1311
▁pen	-1312
▁white	-1313
ere	-1314
▁threw	-1315
less	-1316
▁followed	-1317
▁key	-1318
▁comp	-1319
▁je	-1320
row	-1321
▁music	-1322
▁pol	-1323
ee	-1324
▁What	-1325
▁bee	-1326
▁Sarah	-1327
▁break	-1328
▁forgot	-1329
ctor	-1330
ner	-1331
▁deep	-1332
▁makes	-1333
man	-1334
▁castle	-1335
▁wear	-1336
▁delic	-1337
▁wrong	-1338
ued	-1339
oun	-1340
▁hit	-1341
▁Em	-1342
up	-1343
ape	-1344
arent	-1345
Do	-1346
iet	-1347
thy	-1348
cess	-1349
▁em	-1350
ister	-1351
ves	-1352
▁quiet	-1353
▁vis	-1354
▁parent	-1355
▁round	-1356
▁bowl	-1357
ance	-1358
▁cookies	-1359
▁danced	-1360
itten	-1361
▁nap	-1362
olly	-1363
▁wants	-1364
▁talked	-1365
▁Billy	-1366
rot	-1367
ang	-1368
▁bor	-1369
ully	-1370
▁faster	-1371
ren	-1372
▁leaf	-1373
os	-1374
▁understand	-1375
▁dry	-1376
▁brought	-1377
▁sign	-1378
zz	-1379
▁fox	-1380
▁mum	-1381
▁leg	-1382
▁smart	-1383
ence	-1384
▁ele	-1385
▁monster	-1386
fully	-1387
▁res	-1388
▁well	-1389
▁really	-1390
▁finished	-1391
cy	-1392
▁rel	-1393
▁dinner	-1394
▁rocks	-1395
▁side	-1396
▁sister	-1397
▁button	-1398
▁poin	-1399
▁happen	-1400
▁branch	-1401
▁flying	-1402
▁field	-1403
ross	-1404
▁Z	-1405
▁Gra	-1406
▁someone	-1407
▁visit	-1408
▁contin	-1409
▁sharing	-1410
▁sec	-1411
▁worried	-1412
▁perfect	-1413
th	-1414
▁que	-1415
▁Maybe	-1416
ipp	-1417
▁gift	-1418
▁shin	-1419
▁Joe	-1420
▁today	-1421
ards	-1422
▁king	-1423
▁gi	-1424
▁el	-1425
▁beach	-1426
▁everything	-1427
▁river	-1428
▁spr	-1429
▁bite	-1430
▁secret	-1431
▁pudd	-1432
▁fur	-1433
▁silly	-1434
▁welc	-1435
▁eating	-1436
▁children	-1437
▁orange	-1438
▁danger	-1439
▁smiles	-1440
▁wish	-1441
▁sang	-1442
▁Ch	-1443
▁jar	-1444
▁soup	-1445
▁filled	-1446
▁else	-1447
▁-	-1448
ated	-1449
ze	-1450
▁realized	-1451
▁continued	-1452
▁snack	-1453
▁pieces	-1454
▁gu	-1455
Maybe	-1456
▁start	-1457
▁promised	-1458
▁free	-1459
▁cow	-1460
ead	-1461
itting	-1462
gy	-1463
▁blank	-1464
▁crying	-1465
▁sail	-1466
cket	-1467
ale	-1468
▁carefully	-1469
stead	-1470
▁blanket	-1471
▁boun	-1472
▁drag	-1473
▁parents	-1474
▁mud	-1475
▁words	-1476
ses	-1477
▁enough	-1478
▁rolled	-1479
▁past	-1480
▁throw	-1481
▁pet	-1482
▁drink	-1483
▁money	-1484
▁bath	-1485
ord	-1486
▁ju	-1487
▁bottle	-1488
▁pig	-1489
▁fairy	-1490
bble	-1491
iver	-1492
chool	-1493
▁amazing	-1494
▁monkey	-1495
▁barked	-1496
▁laughing	-1497
▁grandma	-1498
ich	-1499
fort	-1500
▁Jim	-1501
▁yes	-1502
▁without	-1503
▁Jen	-1504
▁school	-1505
▁doctor	-1506
▁whe	-1507
ises	-1508
▁purp	-1509
▁att	-1510
▁wagged	-1511
▁Bl	-1512
▁snake	-1513
ons	-1514
▁moved	-1515
used	-1516
▁welcome	-1517
ire	-1518
▁crab	-1519
▁shop	-1520
▁mail	-1521
ush	-1522
▁asks	-1523
▁brown	-1524
unch	-1525
▁owner	-1526
▁treasure	-1527
▁paw	-1528
▁sitting	-1529
▁mother	-1530
▁getting	-1531
▁lon	-1532
▁closed	-1533
▁purple	-1534
▁smo	-1535
▁higher	-1536
vel	-1537
imi	-1538
▁lonely	-1539
ible	-1540
▁morning	-1541
gg	-1542
▁talking	-1543
asket	-1544
▁shining	-1545
▁dangerous	-1546
▁letter	-1547
▁road	-1548
▁stre	-1549
▁basket	-1550
▁ra	-1551
▁Mimi	-1552
▁apples	-1553
▁living	-1554
▁candy	-1555
▁pass	-1556
me	-1557
una	-1558
▁runs	-1559
▁caught	-1560
▁mad	-1561
▁strange	-1562
▁wings	-1563
ches	-1564
▁chee	-1565
▁creat	-1566
▁puddle	-1567
▁heal	-1568
▁shoes	-1569
ased	-1570
cks	-1571
▁buck	-1572
▁lake	-1573
▁egg	-1574
▁thinks	-1575
▁fan	-1576
▁same	-1577
Tim	-1578
phant	-1579
▁dragon	-1580
▁coat	-1581
ol	-1582
▁stone	-1583
fish	-1584
itch	-1585
isk	-1586
gly	-1587
ella	-1588
app	-1589
▁pre	-1590
▁Emma	-1591
est	-1592
▁tasty	-1593
▁delicious	-1594
igh	-1595
▁sear	-1596
ass	-1597
▁ph	-1598
▁teddy	-1599
▁farmer	-1600
▁belie	-1601
▁swings	-1602
▁stand	-1603
▁years	-1604
▁pill	-1605
▁tom	-1606
▁wore	-1607
The	-1608
board	-1609
▁mine	-1610
ars	-1611
erry	-1612
▁whist	-1613
▁bush	-1614
▁hoped	-1615
set	-1616
But	-1617
▁elephant	-1618
▁gentle	-1619
Please	-1620
▁scream	-1621
▁bring	-1622
▁Together	-1623
▁vill	-1624
▁fit	-1625
▁trou	-1626
▁nose	-1627
ined	-1628
▁push	-1629
sw	-1630
▁ben	-1631
▁days	-1632
▁arri	-1633
▁finally	-1634
▁bow	-1635
▁cray	-1636
▁heart	-1637
▁answ	-1638
▁kite	-1639
iskers	-1640
▁singing	-1641
ier	-1642
▁hor	-1643
▁bat	-1644
▁Blue	-1645
▁Molly	-1646
arm	-1647
▁cho	-1648
▁teach	-1649
sy	-1650
▁cour	-1651
▁carrot	-1652
▁belong	-1653
▁herself	-1654
ball	-1655
bow	-1656
▁dropped	-1657
▁seem	-1658
▁shap	-1659
▁teac	-1660
▁fence	-1661
▁rub	-1662
▁Bella	-1663
▁Whiskers	-1664
ract	-1665
▁shell	-1666
▁Re	-1667
▁rope	-1668
▁coll	-1669
▁course	-1670
▁spin	-1671
▁Their	-1672
ude	-1673
▁Mark	-1674
▁bell	-1675
▁pile	-1676
▁rob	-1677
▁woke	-1678
▁touc	-1679
red	-1680
▁hiding	-1681
aughty	-1682
▁naughty	-1683
Good	-1684
▁min	-1685
▁shook	-1686
ipped	-1687
▁street	-1688
▁lunch	-1689
▁grew	-1690
▁shapes	-1691
▁nut	-1692
▁puppy	-1693
▁twins	-1694
▁bench	-1695
▁village	-1696
▁cheese	-1697
llie	-1698
OK	-1699
Tom	-1700
irth	-1701
▁corn	-1702
irthday	-1703
sc	-1704
▁cheered	-1705
▁cute	-1706
fused	-1707
▁pers	-1708
▁rainbow	-1709
▁sounds	-1710
▁carry	-1711
▁arrived	-1712
▁part	-1713
▁war	-1714
▁juice	-1715
▁prob	-1716
▁sack	-1717
isa	-1718
lla	-1719
▁plane	-1720
col	-1721
▁touched	-1722
▁spoon	-1723
idge	-1724
▁teacher	-1725
ilk	-1726
▁seed	-1727
▁forever	-1728
▁Le	-1729
urtle	-1730
▁spo	-1731
ato	-1732
▁dolls	-1733
▁able	-1734
▁Jill	-1735
lem	-1736
▁inc	-1737
▁Remy	-1738
▁joy	-1739
▁problem	-1740
br	-1741
▁eas	-1742
▁shy	-1743
▁Lisa	-1744
▁busy	-1745
▁milk	-1746
▁bread	-1747
▁birthday	-1748
▁power	-1749
▁most	-1750
eb	-1751
▁robot	-1752
▁few	-1753
▁bugs	-1754
irp	-1755
▁pocket	-1756
ian	-1757
▁promise	-1758
▁wonderful	-1759
umb	-1760
ama	-1761
▁balls	-1762
igg	-1763
▁ugly	-1764
▁Grandma	-1765
arp	-1766
▁kiss	-1767
▁kitten	-1768
▁feels	-1769
▁turtle	-1770
▁gray	-1771
eter	-1772
▁storm	-1773
eared	-1774
▁rec	-1775
▁shake	-1776
▁band	-1777
▁pop	-1778
▁Thank	-1779
▁driver	-1780
umpy	-1781
▁believe	-1782
▁patient	-1783
▁neck	-1784
▁des	-1785
▁wra	-1786
▁sharp	-1787
▁live	-1788
▁helpful	-1789
▁dirt	-1790
ountain	-1791
▁cover	-1792
▁slowly	-1793
▁suc	-1794
▁seat	-1795
ove	-1796
▁late	-1797
ost	-1798
▁lem	-1799
▁bucket	-1800
▁splas	-1801
▁Later	-1802
adow	-1803
oose	-1804
▁Fred	-1805
▁meet	-1806
▁dist	-1807
▁noises	-1808
▁shr	-1809
▁towards	-1810
alm	-1811
▁disapp	-1812
▁mark	-1813
▁stories	-1814
▁cir	-1815
▁cave	-1816
ator	-1817
▁zoom	-1818
▁holding	-1819
fortable	-1820
▁puzz	-1821
▁spark	-1822
▁upset	-1823
▁honey	-1824
▁fold	-1825
▁treats	-1826
▁cloth	-1827
▁magical	-1828
▁young	-1829
▁wild	-1830
▁spid	-1831
unt	-1832
▁hugs	-1833
▁sug	-1834
▁organ	-1835
▁mist	-1836
▁sandw	-1837
read	-1838
▁Be	-1839
▁Leo	-1840
Of	-1841
▁trip	-1842
▁seek	-1843
▁stars	-1844
Lily	-1845
▁amazed	-1846
▁lucky	-1847
▁wheel	-1848
▁forget	-1849
pping	-1850
ens	-1851
epend	-1852
▁giant	-1853
▁instead	-1854
oggy	-1855
▁inv	-1856
▁horse	-1857
▁cou	-1858
▁glow	-1859
▁foot	-1860
umber	-1861
▁taking	-1862
▁rude	-1863
▁drove	-1864
▁fighting	-1865
iling	-1866
▁princess	-1867
▁huge	-1868
ung	-1869
▁cart	-1870
Hey	-1871
▁net	-1872
▁Mary	-1873
ular	-1874
▁last	-1875
▁bone	-1876
ourn	-1877
▁craw	-1878
▁spicy	-1879
Sure	-1880
▁journ	-1881
▁path	-1882
▁cookie	-1883
▁whistle	-1884
▁sick	-1885
▁wave	-1886
ert	-1887
▁sal	-1888
▁coin	-1889
▁moon	-1890
oop	-1891
▁ca	-1892
▁ring	-1893
▁di	-1894
ling	-1895
▁wide	-1896
▁spider	-1897
ize	-1898
▁taste	-1899
▁pillow	-1900
▁songs	-1901
▁rad	-1902
▁write	-1903
ery	-1904
aur	-1905
pper	-1906
▁string	-1907
▁drive	-1908
▁fle	-1909
not	-1910
lower	-1911
▁fixed	-1912
▁comes	-1913
▁joke	-1914
▁boss	-1915
▁daddy	-1916
▁mach	-1917
▁thin	-1918
▁Daddy	-1919
▁bri	-1920
▁ser	-1921
▁life	-1922
▁worm	-1923
▁myster	-1924
▁peace	-1925
den	-1926
▁grumpy	-1927
▁fruits	-1928
▁cannot	-1929
▁card	-1930
ors	-1931
▁messy	-1932
▁ash	-1933
ity	-1934
▁Cat	-1935
elly	-1936
ife	-1937
▁With	-1938
▁hidden	-1939
▁bubble	-1940
ope	-1941
▁sel	-1942
▁change	-1943
▁sheep	-1944
ose	-1945
▁Chirp	-1946
▁sour	-1947
▁Jerry	-1948
▁snowman	-1949
▁Luna	-1950
▁later	-1951
▁bark	-1952
▁adventures	-1953
▁Come	-1954
erest	-1955
▁phone	-1956
▁oven	-1957
▁wasn	-1958
▁bought	-1959
▁sticks	-1960
▁wash	-1961
▁confused	-1962
▁interest	-1963
▁landed	-1964
pect	-1965
▁smooth	-1966
▁selfish	-1967
▁beak	-1968
▁takes	-1969
eth	-1970
▁shelf	-1971
▁chased	-1972
▁ban	-1973
▁drum	-1974
▁lemon	-1975
▁missed	-1976
▁exp	-1977
▁imag	-1978
▁pour	-1979
▁ce	-1980
▁splash	-1981
▁spe	-1982
let	-1983
▁stepped	-1984
▁jog	-1985
▁shirt	-1986
▁Mama	-1987
▁calm	-1988
▁ru	-1989
box	-1990
kin	-1991
▁val	-1992
amed	-1993
▁suddenly	-1994
▁wolf	-1995
▁Chirpy	-1996
▁faces	-1997
▁tie	-1998
to	-1999
ever	-2000
▁pool	-2001
ions	-2002
▁machine	-2003
▁smelly	-2004
▁legs	-2005
▁ducks	-2006
▁watching	-2007
▁hope	-2008
ugg	-2009
▁clever	-2010
mer	-2011
▁Momo	-2012
▁dogs	-2013
▁fing	-2014
▁ent	-2015
▁plate	-2016
▁lift	-2017
▁banan	-2018
▁sleepy	-2019
▁spray	-2020
▁fil	-2021
▁jelly	-2022
ateful	-2023
▁tea	-2024
▁su	-2025
▁zoo	-2026
▁act	-2027
▁ign	-2028
▁slid	-2029
▁med	-2030
▁seemed	-2031
▁drew	-2032
▁Jimmy	-2033
▁across	-2034
▁ba	-2035
▁lay	-2036
▁clouds	-2037
▁whole	-2038
▁step	-2039
▁emp	-2040
▁save	-2041
▁ship	-2042
wel	-2043
▁empty	-2044
▁interesting	-2045
▁though	-2046
▁grateful	-2047
▁supp	-2048
▁puzzle	-2049
▁quest	-2050
ult	-2051
▁pack	-2052
▁longer	-2053
▁Ollie	-2054
▁rod	-2055
▁line	-2056
izz	-2057
unk	-2058
Come	-2059
▁jewel	-2060
onest	-2061
▁plants	-2062
ocked	-2063
▁pract	-2064
yard	-2065
urse	-2066
▁feather	-2067
▁mot	-2068
▁Bobby	-2069
▁explain	-2070
▁yog	-2071
sp	-2072
▁Bunny	-2073
▁emb	-2074
▁bossy	-2075
▁chick	-2076
▁maybe	-2077
▁healthy	-2078
▁backyard	-2079
iger	-2080
▁pin	-2081
ually	-2082
▁honest	-2083
▁smelled	-2084
▁trouble	-2085
▁easy	-2086
iting	-2087
▁St	-2088
▁prot	-2089
St	-2090
▁kick	-2091
▁fake	-2092
▁rocket	-2093
▁prince	-2094
izzy	-2095
▁finish	-2096
arra	-2097
erly	-2098
▁wondered	-2099
▁arms	-2100
▁weak	-2101
arrass	-2102
era	-2103
▁such	-2104
▁gives	-2105
▁tid	-2106
▁embarrass	-2107
▁pan	-2108
▁nothing	-2109
▁lovely	-2110
▁Mum	-2111
▁av	-2112
▁deer	-2113
▁neigh	-2114
▁fancy	-2115
▁mind	-2116
▁crayons	-2117
ward	-2118
▁scar	-2119
▁forgive	-2120
▁anyone	-2121
▁stret	-2122
Be	-2123
irr	-2124
▁gently	-2125
oof	-2126
▁lad	-2127
▁along	-2128
▁working	-2129
▁puts	-2130
llo	-2131
▁bal	-2132
arge	-2133
▁neighb	-2134
▁couch	-2135
▁teeth	-2136
▁cheer	-2137
ont	-2138
▁Somet	-2139
▁saved	-2140
▁stood	-2141
▁chew	-2142
▁mistake	-2143
▁lock	-2144
ork	-2145
ming	-2146
▁tidy	-2147
▁wing	-2148
▁Doggy	-2149
▁pointed	-2150
▁sol	-2151
▁onto	-2152
orrow	-2153
▁van	-2154
▁ladder	-2155
ment	-2156
▁print	-2157
▁sur	-2158
▁splashed	-2159
▁front	-2160
▁af	-2161
ones	-2162
▁bounce	-2163
▁cross	-2164
▁wip	-2165
oomy	-2166
▁Why	-2167
▁dish	-2168
▁waiting	-2169
oc	-2170
▁Tiny	-2171
▁cleaned	-2172
▁large	-2173
▁Bird	-2174
▁ants	-2175
▁pretended	-2176
▁My	-2177
▁clown	-2178
aughter	-2179
▁explor	-2180
▁building	-2181
▁jumping	-2182
arl	-2183
▁cozy	-2184
▁tomorrow	-2185
▁loves	-2186
▁places	-2187
raid	-2188
▁queen	-2189
▁afraid	-2190
▁search	-2191
ned	-2192
aced	-2193
My	-2194
uce	-2195
▁TV	-2196
gest	-2197
▁law	-2198
▁lazy	-2199
▁rich	-2200
▁true	-2201
▁goes	-2202
▁flag	-2203
▁person	-2204
▁pizz	-2205
▁sandwich	-2206
vous	-2207
▁ashamed	-2208
▁ret	-2209
▁swimming	-2210
▁gen	-2211
▁boring	-2212
▁gather	-2213
▁daughter	-2214
▁match	-2215
▁screamed	-2216
▁hum	-2217
▁furry	-2218
ek	-2219
▁powerful	-2220
▁scarf	-2221
▁return	-2222
▁noisy	-2223
▁appeared	-2224
▁hero	-2225
▁hang	-2226
▁wand	-2227
▁ner	-2228
▁chase	-2229
▁nervous	-2230
▁sold	-2231
▁rare	-2232
icked	-2233
▁answer	-2234
▁number	-2235
▁tool	-2236
▁pizza	-2237
▁success	-2238
▁saf	-2239
▁Bu	-2240
▁nearby	-2241
▁stra	-2242
▁map	-2243
oppy	-2244
oman	-2245
▁fear	-2246
▁woman	-2247
▁cap	-2248
▁eag	-2249
▁pri	-2250
▁cand	-2251
▁motor	-2252
▁dig	-2253
▁towel	-2254
▁test	-2255
▁If	-2256
▁chocol	-2257
▁drank	-2258
▁matter	-2259
▁wearing	-2260
▁balloons	-2261
▁Please	-2262
▁How	-2263
▁Benny	-2264
▁note	-2265
▁gold	-2266
▁Al	-2267
osaur	-2268
▁tent	-2269
▁creative	-2270
▁gun	-2271
ensive	-2272
mb	-2273
ado	-2274
▁class	-2275
▁respect	-2276
aw	-2277
▁shadow	-2278
elp	-2279
▁expensive	-2280
▁circle	-2281
▁mysterious	-2282
Stop	-2283
pa	-2284
▁weird	-2285
▁Ducky	-2286
▁dinosaur	-2287
▁gener	-2288
▁trust	-2289
▁smiling	-2290
▁Andy	-2291
▁carried	-2292
▁fat	-2293
▁knee	-2294
▁these	-2295
▁snee	-2296
▁poor	-2297
ser	-2298
▁chocolate	-2299
▁bald	-2300
▁gate	-2301
Now	-2302
▁ap	-2303
any	-2304
▁reg	-2305
▁mirr	-2306
▁soap	-2307
▁polite	-2308
ness	-2309
▁icy	-2310
▁sugar	-2311
▁Don	-2312
▁tick	-2313
▁hello	-2314
▁impress	-2315
▁tries	-2316
▁mirror	-2317
▁Go	-2318
▁Sometimes	-2319
▁become	-2320
▁peaceful	-2321
▁cri	-2322
▁whale	-2323
iff	-2324
▁clap	-2325
▁brush	-2326
ventually	-2327
▁generous	-2328
itter	-2329
▁boot	-2330
▁ear	-2331
▁march	-2332
▁pump	-2333
▁dizzy	-2334
▁Ella	-2335
▁protect	-2336
▁U	-2337
▁embarrassed	-2338
▁stir	-2339
▁shark	-2340
▁lamp	-2341
ume	-2342
▁Br	-2343
▁mel	-2344
▁tasted	-2345
rag	-2346
isp	-2347
▁lead	-2348
airs	-2349
▁sque	-2350
▁har	-2351
ual	-2352
▁crown	-2353
▁closet	-2354
ina	-2355
▁decor	-2356
▁tele	-2357
▁knocked	-2358
▁team	-2359
nic	-2360
▁journey	-2361
lebr	-2362
ony	-2363
▁picnic	-2364
▁celebr	-2365
▁kicked	-2366
▁mic	-2367
Help	-2368
ndpa	-2369
ustr	-2370
▁clear	-2371
▁bridge	-2372
▁yelled	-2373
▁pay	-2374
▁glue	-2375
▁dancing	-2376
▁feet	-2377
▁disco	-2378
▁Some	-2379
▁famous	-2380
▁wouldn	-2381
▁sco	-2382
▁mixed	-2383
▁mod	-2384
▁group	-2385
▁norm	-2386
imp	-2387
▁gigg	-2388
▁word	-2389
▁whisp	-2390
▁hur	-2391
asp	-2392
ute	-2393
▁spread	-2394
▁frustr	-2395
ote	-2396
▁relie	-2397
▁rough	-2398
▁corner	-2399
▁scare	-2400
▁wis	-2401
▁bean	-2402
owed	-2403
▁normal	-2404
▁wrap	-2405
scape	-2406
▁ob	-2407
▁fine	-2408
ced	-2409
▁cone	-2410
ubb	-2411
▁tape	-2412
lves	-2413
▁balance	-2414
rob	-2415
port	-2416
▁vase	-2417
▁ignor	-2418
▁branches	-2419
▁twist	-2420
▁Jenny	-2421
getable	-2422
▁incred	-2423
▁eld	-2424
▁pres	-2425
▁thick	-2426
▁painted	-2427
erries	-2428
issors	-2429
▁mountain	-2430
oph	-2431
▁feed	-2432
▁sell	-2433
▁berries	-2434
▁adm	-2435
▁space	-2436
▁vegetable	-2437
▁frustrated	-2438
Max	-2439
▁Bear	-2440
ray	-2441
▁hose	-2442
▁moms	-2443
bled	-2444
▁blow	-2445
▁clock	-2446
▁drawing	-2447
▁incredible	-2448
▁glass	-2449
▁understood	-2450
ighed	-2451
alous	-2452
▁lose	-2453
▁Sammy	-2454
robe	-2455
Wh	-2456
▁taught	-2457
cient	-2458
▁yarn	-2459
▁cage	-2460
udy	-2461
▁Pe	-2462
▁jealous	-2463
▁fright	-2464
▁scissors	-2465
▁shoe	-2466
▁3	-2467
▁ancient	-2468
▁exam	-2469
▁elderly	-2470
▁organized	-2471
▁burn	-2472
▁spoiled	-2473
▁which	-2474
▁mighty	-2475
▁log	-2476
ragile	-2477
▁spent	-2478
Where	-2479
▁hoop	-2480
▁comfortable	-2481
▁sock	-2482
▁stubb	-2483
▁toug	-2484
▁horn	-2485
▁breath	-2486
▁fool	-2487
▁stubborn	-2488
▁rose	-2489
orry	-2490
▁bake	-2491
kn	-2492
usual	-2493
▁police	-2494
▁fragile	-2495
▁bathroom	-2496
▁wake	-2497
▁roar	-2498
fic	-2499
▁unusual	-2500
ique	-2501
▁Will	-2502
▁tough	-2503
▁diffic	-2504
umsy	-2505
▁Many	-2506
▁thankful	-2507
▁fier	-2508
▁fierce	-2509
▁difficult	-2510
▁barn	-2511
▁dove	-2512
▁unique	-2513
▁relieved	-2514
▁paws	-2515
▁clumsy	-2516
▁finding	-2517
▁dug	-2518
▁Brown	-2519
▁clay	-2520
▁dead	-2521
unn	-2522
▁ham	-2523
▁jam	-2524
▁mis	-2525
▁bloom	-2526
▁frightened	-2527
▁eggs	-2528
▁tells	-2529
▁potato	-2530
▁marble	-2531
▁measure	-2532
known	-2533
▁'	-2534
▁cab	-2535
▁creature	-2536
▁ord	-2537
▁sunf	-2538
▁ter	-2539
▁wagon	-2540
▁unknown	-2541
▁searched	-2542
▁guit	-2543
▁foolish	-2544
ond	-2545
Mommy	-2546
cil	-2547
▁wrote	-2548
▁bitter	-2549
▁market	-2550
▁dull	-2551
ym	-2552
▁pumpkin	-2553
▁Tr	-2554
▁guess	-2555
xible	-2556
▁present	-2557
▁covered	-2558
▁pray	-2559
▁swan	-2560
▁cabin	-2561
▁waves	-2562
▁finger	-2563
▁terri	-2564
yal	-2565
anged	-2566
▁washed	-2567
Here	-2568
ground	-2569
▁exploring	-2570
▁body	-2571
▁pencil	-2572
▁pir	-2573
▁disg	-2574
▁Rex	-2575
▁add	-2576
▁useful	-2577
als	-2578
▁unl	-2579
▁guitar	-2580
▁tomato	-2581
▁knife	-2582
▁straw	-2583
dle	-2584
▁flexible	-2585
▁Tw	-2586
berry	-2587
com	-2588
▁bubbles	-2589
alk	-2590
▁hears	-2591
▁discover	-2592
▁loyal	-2593
▁nosy	-2594
▁zip	-2595
▁moving	-2596
▁delicate	-2597
▁drop	-2598
shine	-2599
ormous	-2600
▁disgust	-2601
land	-2602
▁witch	-2603
▁weal	-2604
▁ending	-2605
▁chest	-2606
▁nuts	-2607
▁enormous	-2608
iant	-2609
▁adventur	-2610
▁mask	-2611
▁asking	-2612
erp	-2613
upid	-2614
▁sort	-2615
▁cam	-2616
▁suit	-2617
▁sword	-2618
▁goose	-2619
▁adventurous	-2620
lace	-2621
▁rat	-2622
▁yours	-2623
▁stove	-2624
▁seeds	-2625
▁ind	-2626
apped	-2627
▁frown	-2628
▁tiger	-2629
▁joined	-2630
▁crazy	-2631
▁disgusting	-2632
▁goat	-2633
▁knowing	-2634
irsty	-2635
▁gloomy	-2636
▁square	-2637
▁necklace	-2638
▁chicken	-2639
▁cost	-2640
▁exciting	-2641
▁sunshine	-2642
▁nods	-2643
▁dough	-2644
▁spring	-2645
▁hats	-2646
light	-2647
▁hairy	-2648
▁stri	-2649
Me	-2650
▁cheap	-2651
▁wealthy	-2652
▁thirsty	-2653
▁mov	-2654
▁board	-2655
Who	-2656
ates	-2657
selves	-2658
▁changed	-2659
▁asleep	-2660
▁magn	-2661
▁harm	-2662
▁terrible	-2663
▁No	-2664
▁stupid	-2665
▁island	-2666
lliant	-2667
ory	-2668
reen	-2669
inky	-2670
▁cats	-2671
▁Instead	-2672
▁sunflower	-2673
mbre	-2674
▁perform	-2675
▁smaller	-2676
▁yourself	-2677
▁brilliant	-2678
▁salad	-2679
▁stuff	-2680
▁solve	-2681
▁value	-2682
▁banana	-2683
▁umbre	-2684
▁record	-2685
▁stamp	-2686
fted	-2687
▁collect	-2688
▁raven	-2689
▁trick	-2690
▁neighbor	-2691
erpill	-2692
▁borrow	-2693
▁caterpill	-2694
▁times	-2695
▁depend	-2696
▁comb	-2697
▁shine	-2698
▁relax	-2699
iness	-2700
▁belt	-2701
▁study	-2702
▁mailbox	-2703
▁careless	-2704
▁mush	-2705
ilt	-2706
▁scale	-2707
▁mushroom	-2708
▁rug	-2709
▁shoot	-2710
▁explained	-2711
▁jet	-2712
▁gets	-2713
▁squee	-2714
▁remind	-2715
▁shiver	-2716
▁snacks	-2717
▁bored	-2718
Ben	-2719
▁jolly	-2720
ict	-2721
most	-2722
▁gem	-2723
ungle	-2724
▁stage	-2725
▁fridge	-2726
▁jack	-2727
igin	-2728
▁carrots	-2729
▁medic	-2730
▁jungle	-2731
anut	-2732
▁meal	-2733
▁counted	-2734
iginal	-2735
▁choose	-2736
▁acorn	-2737
▁stones	-2738
Are	-2739
ident	-2740
▁pebble	-2741
▁shore	-2742
▁almost	-2743
▁successful	-2744
▁gar	-2745
▁steal	-2746
▁jug	-2747
▁jacket	-2748
iable	-2749
pes	-2750
▁flash	-2751
▁houses	-2752
▁eng	-2753
▁four	-2754
▁cher	-2755
▁medicine	-2756
▁caterpillar	-2757
▁moder	-2758
▁obed	-2759
▁toast	-2760
▁original	-2761
▁sighed	-2762
▁fork	-2763
io	-2764
ying	-2765
▁Your	-2766
▁serious	-2767
If	-2768
▁obedient	-2769
▁magnet	-2770
▁hay	-2771
▁modern	-2772
▁dependable	-2773
corn	-2774
▁raced	-2775
▁er	-2776
▁cro	-2777
▁umbrella	-2778
▁pepper	-2779
Sorry	-2780
▁camera	-2781
▁fearful	-2782
▁hammer	-2783
▁popular	-2784
▁Sn	-2785
iddle	-2786
▁aunt	-2787
▁lifted	-2788
▁scr	-2789
▁sink	-2790
▁parrot	-2791
▁belonged	-2792
▁pasta	-2793
aken	-2794
▁sauce	-2795
▁jeep	-2796
▁cries	-2797
▁lab	-2798
▁picks	-2799
met	-2800
arth	-2801
cut	-2802
▁dest	-2803
▁bedroom	-2804
▁independ	-2805
ti	-2806
▁lean	-2807
▁ones	-2808
▁compet	-2809
▁painting	-2810
und	-2811
▁slipped	-2812
▁garage	-2813
▁melon	-2814
▁helmet	-2815
▁tooth	-2816
▁crayon	-2817
▁vegetables	-2818
live	-2819
▁tax	-2820
unnel	-2821
▁point	-2822
▁middle	-2823
urkey	-2824
▁Jake	-2825
▁tunnel	-2826
▁prize	-2827
▁smoke	-2828
▁triang	-2829
cream	-2830
▁stat	-2831
▁escape	-2832
▁muff	-2833
▁stretch	-2834
▁cheerful	-2835
ages	-2836
▁taken	-2837
appy	-2838
▁crack	-2839
▁popcorn	-2840
▁spotted	-2841
ours	-2842
lph	-2843
gu	-2844
het	-2845
▁independent	-2846
▁eager	-2847
aser	-2848
▁reliable	-2849
▁Today	-2850
▁filthy	-2851
▁crawled	-2852
Sam	-2853
▁beet	-2854
celet	-2855
▁dolph	-2856
▁taxi	-2857
▁fountain	-2858
▁using	-2859
erable	-2860
▁turkey	-2861
▁bracelet	-2862
▁ref	-2863
▁bottom	-2864
▁gum	-2865
▁press	-2866
▁impressive	-2867
aghet	-2868
aghetti	-2869
▁miserable	-2870
▁pow	-2871
coa	-2872
▁arrow	-2873
aff	-2874
▁engine	-2875
ipop	-2876
llipop	-2877
▁standing	-2878
▁swe	-2879
▁pant	-2880
▁built	-2881
icop	-2882
▁tied	-2883
icopter	-2884
▁hopping	-2885
▁troubled	-2886
iv	-2887
▁lollipop	-2888
dile	-2889
▁candle	-2890
berries	-2891
▁playful	-2892
▁helicopter	-2893
codile	-2894
▁uncom	-2895
▁uncomfortable	-2896
▁pian	-2897
▁spaghetti	-2898
▁Peter	-2899
▁cube	-2900
▁squash	-2901
▁mop	-2902
▁shade	-2903
▁rid	-2904
▁Emily	-2905
▁cryst	-2906
ipe	-2907
▁crane	-2908
▁humble	-2909
atch	-2910
▁hurts	-2911
▁piano	-2912
▁roof	-2913
▁tricks	-2914
▁tears	-2915
▁fig	-2916
▁Even	-2917
▁helps	-2918
▁batter	-2919
▁harmless	-2920
inary	-2921
▁low	-2922
▁sil	-2923
▁dust	-2924
cles	-2925
▁liz	-2926
▁waff	-2927
▁Sus	-2928
▁boats	-2929
▁shows	-2930
▁locked	-2931
rn	-2932
▁radio	-2933
▁statue	-2934
▁grace	-2935
▁thoughtful	-2936
amond	-2937
▁True	-2938
▁mole	-2939
▁kissed	-2940
▁peanut	-2941
▁competit	-2942
▁comput	-2943
ube	-2944
pack	-2945
▁movie	-2946
▁meant	-2947
▁crocodile	-2948
▁cush	-2949
▁cocoa	-2950
▁rice	-2951
▁collar	-2952
▁beetle	-2953
How	-2954
▁deaf	-2955
▁envel	-2956
▁cop	-2957
▁diamond	-2958
▁melt	-2959
▁design	-2960
▁answered	-2961
▁happiness	-2962
▁carp	-2963
▁pants	-2964
▁yogurt	-2965
▁anx	-2966
▁spill	-2967
▁fis	-2968
umpet	-2969
▁lizard	-2970
▁tank	-2971
▁passed	-2972
▁trumpet	-2973
▁walks	-2974
ilty	-2975
▁pony	-2976
▁tube	-2977
▁anxious	-2978
oto	-2979
▁guilty	-2980
▁poured	-2981
▁crystal	-2982
▁haircut	-2983
▁invited	-2984
▁carpet	-2985
ext	-2986
▁speed	-2987
cident	-2988
▁trunk	-2989
▁computer	-2990
oin	-2991
▁barber	-2992
▁cere	-2993
▁practiced	-2994
azz	-2995
▁pro	-2996
▁Dan	-2997
▁tire	-2998
ye	-2999
▁bicy	-3000
▁questions	-3001
ats	-3002
▁wire	-3003
bb	-3004
ccol	-3005
▁needs	-3006
▁nail	-3007
▁env	-3008
▁ruined	-3009
▁quar	-3010
▁create	-3011
lcan	-3012
ccoli	-3013
▁scoot	-3014
▁whispered	-3015
▁avoc	-3016
▁bull	-3017
▁poem	-3018
▁helpless	-3019
hip	-3020
uth	-3021
▁ang	-3022
▁harder	-3023
▁regular	-3024
opl	-3025
eropl	-3026
ither	-3027
▁wheat	-3028
cean	-3029
lcano	-3030
▁ocean	-3031
▁pale	-3032
▁cereal	-3033
ging	-3034
▁aeropl	-3035
▁friendship	-3036
▁load	-3037
▁fluffy	-3038
▁persist	-3039
ulu	-3040
▁trap	-3041
▁flute	-3042
spit	-3043
▁hospit	-3044
▁ordinary	-3045
▁twig	-3046
▁disappoin	-3047
▁rep	-3048
▁bees	-3049
▁giving	-3050
▁deliver	-3051
udge	-3052
atter	-3053
▁office	-3054
▁accident	-3055
▁hospital	-3056
▁rag	-3057
▁flashlight	-3058
▁tag	-3059
▁Poppy	-3060
zed	-3061
▁spun	-3062
▁torn	-3063
▁broccoli	-3064
▁ticket	-3065
▁quarrel	-3066
ulif	-3067
▁gifted	-3068
▁stronger	-3069
▁coo	-3070
▁ears	-3071
▁purse	-3072
▁Little	-3073
▁volcano	-3074
▁sailed	-3075
▁wander	-3076
▁envelope	-3077
▁compass	-3078
▁track	-3079
▁feathers	-3080
▁licked	-3081
▁mitten	-3082
▁soldier	-3083
▁eraser	-3084
▁Rose	-3085
▁caulif	-3086
▁mug	-3087
edy	-3088
▁Lulu	-3089
▁pige	-3090
▁rode	-3091
▁needle	-3092
▁univer	-3093
▁charm	-3094
▁stream	-3095
▁glove	-3096
▁triangle	-3097
acht	-3098
cycle	-3099
▁spend	-3100
rill	-3101
tern	-3102
▁wrapped	-3103
asses	-3104
▁Buzz	-3105
▁libr	-3106
▁mill	-3107
▁knot	-3108
▁pipe	-3109
▁comet	-3110
aze	-3111
▁compassion	-3112
▁vi	-3113
ubby	-3114
▁persistent	-3115
▁hunt	-3116
▁cleaning	-3117
▁cauliflower	-3118
▁decide	-3119
isted	-3120
▁yacht	-3121
▁nicely	-3122
ief	-3123
zzy	-3124
▁inse	-3125
rework	-3126
▁vide	-3127
▁screen	-3128
essie	-3129
▁planet	-3130
omes	-3131
▁boys	-3132
▁harsh	-3133
▁shape	-3134
▁eventually	-3135
▁tem	-3136
▁alert	-3137
▁grown	-3138
▁Pipp	-3139
▁graceful	-3140
ellig	-3141
▁case	-3142
▁intellig	-3143
▁disappointed	-3144
▁Sh	-3145
▁Mummy	-3146
▁chubby	-3147
▁bicycle	-3148
▁uncle	-3149
▁shrimp	-3150
▁learning	-3151
▁dreams	-3152
chair	-3153
▁cushion	-3154
▁delight	-3155
host	-3156
▁leop	-3157
▁boxes	-3158
olin	-3159
▁tap	-3160
▁saus	-3161
▁figure	-3162
▁envious	-3163
▁parade	-3164
▁ignorant	-3165
▁Bet	-3166
▁pit	-3167
▁ghost	-3168
▁aeroplane	-3169
▁lit	-3170
▁radish	-3171
▁louder	-3172
▁armchair	-3173
▁firework	-3174
dge	-3175
▁cact	-3176
Go	-3177
▁sle	-3178
▁crawl	-3179
▁insect	-3180
▁half	-3181
▁OK	-3182
▁sleeping	-3183
▁happening	-3184
▁competitive	-3185
illa	-3186
▁acce	-3187
▁club	-3188
▁celebrate	-3189
▁soar	-3190
▁onion	-3191
▁leopard	-3192
▁excite	-3193
▁intelligent	-3194
▁ador	-3195
▁chalk	-3196
ten	-3197
▁nod	-3198
▁ways	-3199
▁pattern	-3200
▁charming	-3201
▁spinning	-3202
▁send	-3203
▁sheet	-3204
vator	-3205
▁Fo	-3206
▁skipped	-3207
▁elevator	-3208
asing	-3209
▁folder	-3210
▁attract	-3211
▁restless	-3212
▁judge	-3213
▁truth	-3214
under	-3215
▁hook	-3216
▁polish	-3217
▁Miss	-3218
▁angel	-3219
▁violin	-3220
▁dolphin	-3221
▁wiped	-3222
▁rubbed	-3223
▁fu	-3224
▁cable	-3225
▁bags	-3226
▁destro	-3227
▁unlock	-3228
▁adorable	-3229
▁cooked	-3230
▁scooter	-3231
▁desk	-3232
▁thief	-3233
ision	-3234
Sp	-3235
▁Pet	-3236
▁bushes	-3237
▁travel	-3238
▁marry	-3239
▁attractive	-3240
▁yaw	-3241
▁vine	-3242
▁behave	-3243
▁herb	-3244
▁pole	-3245
▁city	-3246
dom	-3247
▁question	-3248
▁compassionate	-3249
▁temp	-3250
▁Polly	-3251
▁speak	-3252
▁forward	-3253
▁lying	-3254
▁motorcycle	-3255
▁prun	-3256
umbers	-3257
▁homes	-3258
▁cactus	-3259
▁themselves	-3260
▁coal	-3261
▁loop	-3262
atient	-3263
▁cricket	-3264
▁playground	-3265
▁raft	-3266
▁lights	-3267
▁hipp	-3268
anger	-3269
▁skip	-3270
▁week	-3271
elery	-3272
▁skull	-3273
▁coins	-3274
▁surf	-3275
▁base	-3276
▁mint	-3277
ebra	-3278
▁lime	-3279
▁avocado	-3280
▁counting	-3281
Sue	-3282
▁shells	-3283
igator	-3284
▁film	-3285
▁thread	-3286
▁barrel	-3287
▁numbers	-3288
▁impatient	-3289
▁Alice	-3290
▁Birdy	-3291
▁celery	-3292
▁screw	-3293
▁cartoon	-3294
▁distant	-3295
urch	-3296
▁pigeon	-3297
▁bounced	-3298
ebook	-3299
▁deter	-3300
▁wheels	-3301
▁zebra	-3302
▁notebook	-3303
ctop	-3304
ject	-3305
▁bin	-3306
▁resc	-3307
▁Susie	-3308
▁distur	-3309
▁scatter	-3310
▁returned	-3311
▁Tweet	-3312
▁determ	-3313
▁sniff	-3314
▁laughs	-3315
▁skin	-3316
▁vest	-3317
▁alligator	-3318
▁earth	-3319
▁saying	-3320
▁showing	-3321
ating	-3322
▁order	-3323
oby	-3324
▁curt	-3325
▁peach	-3326
▁ed	-3327
▁slept	-3328
▁Pete	-3329
▁aut	-3330
▁curtain	-3331
▁bump	-3332
▁dive	-3333
▁lively	-3334
ctopus	-3335
▁bandage	-3336
▁post	-3337
▁yoga	-3338
▁enth	-3339
▁prep	-3340
▁spell	-3341
▁trucks	-3342
bul	-3343
rage	-3344
▁kay	-3345
▁meat	-3346
▁impro	-3347
usia	-3348
▁hippo	-3349
▁loudly	-3350
▁ink	-3351
▁enthusia	-3352
▁Tina	-3353
▁church	-3354
▁station	-3355
▁brothers	-3356
▁pengu	-3357
▁itch	-3358
▁bul	-3359
▁cord	-3360
▁biggest	-3361
quit	-3362
▁seal	-3363
▁nurse	-3364
▁pastry	-3365
▁pointing	-3366
▁gor	-3367
▁tray	-3368
▁decorate	-3369
▁kindness	-3370
ceed	-3371
nger	-3372
quito	-3373
▁ambul	-3374
▁ambulance	-3375
▁golf	-3376
▁math	-3377
▁forth	-3378
▁father	-3379
▁mos	-3380
▁bulb	-3381
▁falls	-3382
Give	-3383
obile	-3384
▁Zoom	-3385
▁sneeze	-3386
▁destroy	-3387
▁thunder	-3388
▁cups	-3389
▁powder	-3390
▁disappeared	-3391
omobile	-3392
▁octopus	-3393
ament	-3394
▁steak	-3395
▁flea	-3396
▁mosquito	-3397
▁automobile	-3398
▁kayak	-3399
▁tummy	-3400
ention	-3401
▁sweater	-3402
▁walls	-3403
▁buttons	-3404
▁file	-3405
aged	-3406
▁poke	-3407
Bye	-3408
▁led	-3409
lies	-3410
▁shield	-3411
▁compl	-3412
▁library	-3413
▁succeed	-3414
▁football	-3415
?".	-3416
▁guard	-3417
▁knows	-3418
▁orn	-3419
▁pun	-3420
▁ornament	-3421
▁suggest	-3422
ache	-3423
▁shut	-3424
▁modest	-3425
▁support	-3426
▁gathered	-3427
▁salt	-3428
▁mixer	-3429
▁Sunny	-3430
▁knight	-3431
▁repe	-3432
▁muffin	-3433
utes	-3434
▁Betty	-3435
▁ple	-3436
▁strawberry	-3437
▁means	-3438
▁metal	-3439
▁jellyfish	-3440
aving	-3441
▁diary	-3442
ckey	-3443
▁hockey	-3444
▁stranger	-3445
▁Cl	-3446
uring	-3447
Well	-3448
▁zipp	-3449
▁flame	-3450
▁whenever	-3451
▁pirate	-3452
▁split	-3453
▁shocked	-3454
Re	-3455
▁wishes	-3456
ophone	-3457
case	-3458
▁calling	-3459
gl	-3460
umbled	-3461
▁hedge	-3462
▁People	-3463
▁driving	-3464
aky	-3465
▁attic	-3466
▁gorilla	-3467
▁basketball	-3468
▁yet	-3469
loo	-3470
▁cob	-3471
ffe	-3472
▁Snow	-3473
ffee	-3474
▁rolling	-3475
time	-3476
▁enc	-3477
▁packed	-3478
Spot	-3479
▁mild	-3480
▁pear	-3481
▁laser	-3482
▁makeup	-3483
▁minutes	-3484
we	-3485
web	-3486
▁ig	-3487
ilot	-3488
▁arg	-3489
ature	-3490
▁added	-3491
▁repair	-3492
▁complet	-3493
▁wife	-3494
▁chain	-3495
▁igloo	-3496
▁costume	-3497
par	-3498
ushed	-3499
▁cobweb	-3500
▁drawer	-3501
▁cell	-3502
stic	-3503
▁edge	-3504
htub	-3505
▁enthusiastic	-3506
ait	-3507
▁Toby	-3508
▁bathtub	-3509
keep	-3510
ucet	-3511
▁video	-3512
▁oil	-3513
phone	-3514
▁sungl	-3515
▁itself	-3516
▁sunglasses	-3517
▁stairs	-3518
▁oats	-3519
▁once	-3520
▁tripped	-3521
▁pilot	-3522
▁cupboard	-3523
▁skirt	-3524
▁sailor	-3525
▁bananas	-3526
essert	-3527
▁stack	-3528
▁grapes	-3529
▁leash	-3530
▁telephone	-3531
▁veil	-3532
▁Rob	-3533
▁pine	-3534
▁faucet	-3535
▁fireman	-3536
cing	-3537
▁dessert	-3538
kele	-3539
▁weep	-3540
keleton	-3541
▁waffle	-3542
▁oak	-3543
▁drawings	-3544
▁determined	-3545
▁task	-3546
▁tools	-3547
▁Bessie	-3548
▁strugg	-3549
irit	-3550
▁whip	-3551
▁staff	-3552
▁coffee	-3553
ophy	-3554
▁chess	-3555
▁spear	-3556
▁cooler	-3557
▁complain	-3558
▁Spike	-3559
▁Teddy	-3560
rophone	-3561
▁missile	-3562
head	-3563
▁separ	-3564
▁trophy	-3565
▁temple	-3566
▁organize	-3567
▁either	-3568
▁package	-3569
▁oy	-3570
▁ribb	-3571
▁short	-3572
▁switch	-3573
▁camp	-3574
▁root	-3575
▁hunter	-3576
▁meadow	-3577
▁wool	-3578
▁ten	-3579
▁matt	-3580
▁vend	-3581
▁growl	-3582
▁medal	-3583
▁barking	-3584
▁passport	-3585
iron	-3586
▁Next	-3587
hic	-3588
work	-3589
▁eye	-3590
▁gear	-3591
▁lotion	-3592
▁skeleton	-3593
ugged	-3594
▁vehic	-3595
▁handle	-3596
▁taller	-3597
▁flour	-3598
▁magaz	-3599
▁journal	-3600
▁reading	-3601
▁microphone	-3602
▁men	-3603
▁sandbox	-3604
▁Mar	-3605
▁knock	-3606
▁picking	-3607
▁giggled	-3608
▁sausage	-3609
▁dreamed	-3610
uper	-3611
▁sub	-3612
▁vendor	-3613
ric	-3614
▁Zip	-3615
ready	-3616
▁Look	-3617
▁cane	-3618
▁hall	-3619
keeper	-3620
aroo	-3621
▁sne	-3622
▁mattress	-3623
▁ok	-3624
angaroo	-3625
▁thinking	-3626
▁may	-3627
▁five	-3628
▁maze	-3629
▁pretending	-3630
▁rot	-3631
▁towers	-3632
▁hanger	-3633
▁imagine	-3634
▁often	-3635
▁managed	-3636
▁pal	-3637
▁safely	-3638
▁already	-3639
ron	-3640
▁fuel	-3641
▁hanging	-3642
▁blackboard	-3643
was	-3644
▁kangaroo	-3645
ines	-3646
See	-3647
▁grandpa	-3648
ne	-3649
washer	-3650
▁trash	-3651
▁colour	-3652
▁mem	-3653
▁sett	-3654
▁grill	-3655
▁rise	-3656
▁steps	-3657
▁remain	-3658
▁perm	-3659
▁slides	-3660
▁palace	-3661
▁reward	-3662
drobe	-3663
▁glowing	-3664
▁wardrobe	-3665
apers	-3666
▁lend	-3667
▁wallet	-3668
old	-3669
▁encou	-3670
▁Pippin	-3671
▁dishwasher	-3672
▁early	-3673
ination	-3674
istol	-3675
▁hotel	-3676
▁hours	-3677
▁realised	-3678
▁tear	-3679
▁napkin	-3680
▁Mrs	-3681
azor	-3682
esday	-3683
▁frame	-3684
▁newsp	-3685
▁sight	-3686
▁those	-3687
▁ur	-3688
▁gasp	-3689
enny	-3690
▁juicy	-3691
▁stared	-3692
ctory	-3693
otter	-3694
▁Everywhere	-3695
▁Kim	-3696
▁quit	-3697
▁boots	-3698
gen	-3699
Wait	-3700
ately	-3701
▁cooking	-3702
▁opens	-3703
▁otter	-3704
▁photo	-3705
vision	-3706
▁spirit	-3707
▁penguin	-3708
▁novel	-3709
seum	-3710
▁fog	-3711
▁notice	-3712
▁silver	-3713
▁pee	-3714
▁bill	-3715
▁factory	-3716
▁spilled	-3717
▁baseball	-3718
▁listening	-3719
▁museum	-3720
play	-3721
▁enjoying	-3722
▁iron	-3723
▁Un	-3724
ampoo	-3725
▁happier	-3726
rosc	-3727
▁jewelry	-3728
▁message	-3729
▁super	-3730
roscope	-3731
▁pinch	-3732
▁pistol	-3733
▁oyster	-3734
▁ow	-3735
ney	-3736
arian	-3737
▁Before	-3738
▁television	-3739
eer	-3740
hin	-3741
▁mule	-3742
▁holds	-3743
▁roared	-3744
▁gain	-3745
▁neat	-3746
▁avail	-3747
▁mummy	-3748
▁penny	-3749
▁check	-3750
▁swamp	-3751
▁subway	-3752
aid	-3753
body	-3754
▁Here	-3755
▁size	-3756
▁marched	-3757
iction	-3758
▁lie	-3759
▁Grandpa	-3760
▁Mandy	-3761
ictionary	-3762
▁bathe	-3763
▁hurry	-3764
htray	-3765
▁prov	-3766
▁trains	-3767
▁available	-3768
▁perfume	-3769
iew	-3770
stairs	-3771
▁freez	-3772
▁telling	-3773
▁reind	-3774
▁display	-3775
▁fingers	-3776
▁stumbled	-3777
ured	-3778
▁allowed	-3779
▁fastest	-3780
asis	-3781
▁cows	-3782
▁object	-3783
▁climbing	-3784
cu	-3785
▁ax	-3786
▁nature	-3787
▁shampoo	-3788
aspoon	-3789
▁view	-3790
▁lightning	-3791
▁obser	-3792
▁zipper	-3793
▁tub	-3794
▁hive	-3795
▁jumps	-3796
▁fisher	-3797
▁reindeer	-3798
▁gas	-3799
▁pressed	-3800
▁microscope	-3801
imney	-3802
▁rhin	-3803
▁patch	-3804
▁Give	-3805
▁rever	-3806
▁magazine	-3807
aches	-3808
▁valu	-3809
▁complete	-3810
▁jokes	-3811
▁letters	-3812
ilet	-3813
▁hut	-3814
▁Mike	-3815
▁razor	-3816
▁excitement	-3817
▁axe	-3818
▁chimney	-3819
▁improve	-3820
▁vehicle	-3821
affe	-3822
iches	-3823
▁tornado	-3824
▁swinging	-3825
▁sandwiches	-3826
ival	-3827
▁tut	-3828
▁snap	-3829
▁ashtray	-3830
▁shaking	-3831
▁cabinet	-3832
▁billboard	-3833
chor	-3834
▁weigh	-3835
▁fest	-3836
▁tuna	-3837
▁oasis	-3838
▁helper	-3839
▁toilet	-3840
▁falling	-3841
▁practice	-3842
place	-3843
▁opera	-3844
ense	-3845
▁attach	-3846
▁spoke	-3847
▁dictionary	-3848
▁discovered	-3849
iest	-3850
▁teaspoon	-3851
▁shrink	-3852
▁Co	-3853
▁rece	-3854
▁stickers	-3855
▁tutor	-3856
▁serve	-3857
xy	-3858
▁battery	-3859
▁cherries	-3860
▁blin	-3861
▁stops	-3862
eros	-3863
▁growing	-3864
▁por	-3865
▁papers	-3866
omed	-3867
vice	-3868
▁sym	-3869
▁Boun	-3870
▁names	-3871
▁newspaper	-3872
▁popped	-3873
▁fisherman	-3874
iform	-3875
▁offered	-3876
▁uniform	-3877
bol	-3878
▁frogs	-3879
!".	-3880
alend	-3881
▁bookcase	-3882
te	-3883
▁incl	-3884
▁anchor	-3885
▁distance	-3886
▁ped	-3887
▁beef	-3888
▁festival	-3889
▁cardboard	-3890
oceros	-3891
▁calend	-3892
▁unpack	-3893
▁fireplace	-3894
▁stretched	-3895
▁laund	-3896
There	-3897
▁bury	-3898
▁symbol	-3899
▁blueberries	-3900
▁giraffe	-3901
▁laundry	-3902
▁musician	-3903
▁bathrobe	-3904
Ow	-3905
ik	-3906
▁Are	-3907
▁riding	-3908
▁tease	-3909
come	-3910
▁Ellie	-3911
▁calendar	-3912
▁leaving	-3913
fa	-3914
▁hung	-3915
▁stirred	-3916
▁rescue	-3917
▁blouse	-3918
▁disturb	-3919
▁respectful	-3920
na	-3921
▁Buzzy	-3922
▁dancer	-3923
▁tightly	-3924
Is	-3925
▁doesn	-3926
▁slipp	-3927
▁chose	-3928
Ouch	-3929
▁rail	-3930
▁anyway	-3931
▁ext	-3932
▁gym	-3933
▁crib	-3934
▁rake	-3935
▁gasped	-3936
▁sparkly	-3937
▁imagined	-3938
▁son	-3939
▁rhinoceros	-3940
▁lip	-3941
▁bikes	-3942
▁brick	-3943
▁holes	-3944
▁model	-3945
▁valuable	-3946
anda	-3947
fast	-3948
▁comfort	-3949
▁agree	-3950
▁circles	-3951
▁porch	-3952
▁trail	-3953
▁page	-3954
▁cards	-3955
▁disag	-3956
▁disappear	-3957
▁hate	-3958
▁quiz	-3959
▁remove	-3960
▁dreaming	-3961
angu	-3962
▁resist	-3963
▁freezer	-3964
▁sweetie	-3965
▁Johnny	-3966
la	-3967
ogn	-3968
▁stom	-3969
▁recogn	-3970
▁rubber	-3971
▁poked	-3972
▁ins	-3973
▁beep	-3974
▁slip	-3975
▁breakfast	-3976
▁Dolly	-3977
▁miner	-3978
▁pastel	-3979
▁butterflies	-3980
▁langu	-3981
▁against	-3982
▁belongs	-3983
▁Dave	-3984
stri	-3985
zag	-3986
▁fort	-3987
▁soil	-3988
▁wipe	-3989
▁airport	-3990
▁bet	-3991
▁goal	-3992
▁junk	-3993
▁missing	-3994
reek	-3995
▁Red	-3996
astic	-3997
igzag	-3998
▁Jazz	-3999
▁creek	-4000
▁leaned	-4001
They	-4002
▁Bow	-4003
▁sofa	-4004
▁refused	-4005
Dad	-4006
lter	-4007
▁invite	-4008
▁monkeys	-4009
res	-4010
▁starts	-4011
▁shelter	-4012
arry	-4013
▁birdc	-4014
▁painter	-4015
▁weather	-4016
▁squirrels	-4017
▁extra	-4018
▁steam	-4019
▁carrying	-4020
▁squeeze	-4021
▁pleased	-4022
▁waste	-4023
▁advice	-4024
▁theater	-4025
▁birdcage	-4026
▁ahead	-4027
▁trade	-4028
render	-4029
▁separate	-4030
▁jail	-4031
▁peek	-4032
▁peeked	-4033
▁fixing	-4034
▁Lee	-4035
▁Freddy	-4036
▁bookshe	-4037
▁Carl	-4038
▁happens	-4039
▁Y	-4040
riger	-4041
▁frowned	-4042
rigerator	-4043
▁cliff	-4044
▁bookshelf	-4045
aurant	-4046
▁ostri	-4047
▁refrigerator	-4048
ef	-4049
ola	-4050
▁winter	-4051
▁classroom	-4052
▁restaurant	-4053
▁accidentally	-4054
▁zoomed	-4055
▁mistakes	-4056
▁suggested	-4057
aked	-4058
▁rules	-4059
ucture	-4060
▁unite	-4061
▁anywhere	-4062
▁structure	-4063
▁alarm	-4064
alley	-4065
▁Binky	-4066
▁olive	-4067
▁sounded	-4068
▁cudd	-4069
▁lawn	-4070
▁swung	-4071
bles	-4072
▁berry	-4073
▁admire	-4074
▁sum	-4075
▁knob	-4076
ison	-4077
▁accept	-4078
▁shouts	-4079
ium	-4080
▁twir	-4081
iki	-4082
▁sent	-4083
▁grabs	-4084
▁valley	-4085
▁ceiling	-4086
▁lid	-4087
▁Spe	-4088
▁chasing	-4089
He	-4090
rod	-4091
▁chance	-4092
▁Bub	-4093
▁above	-4094
▁fought	-4095
uggage	-4096
▁apron	-4097
▁introd	-4098
▁Eventually	-4099
yer	-4100
▁inf	-4101
night	-4102
thank	-4103
▁Where	-4104
▁stable	-4105
▁warned	-4106
▁luggage	-4107
▁caring	-4108
amber	-4109
▁finds	-4110
▁reverse	-4111
med	-4112
▁Pat	-4113
▁grape	-4114
▁Lola	-4115
▁searching	-4116
hero	-4117
▁Soph	-4118
▁blinked	-4119
▁windows	-4120
▁bent	-4121
▁reef	-4122
eterin	-4123
▁lumber	-4124
eterinarian	-4125
▁Bill	-4126
▁label	-4127
ience	-4128
▁incre	-4129
▁sunset	-4130
▁suff	-4131
▁grand	-4132
▁lives	-4133
▁buckle	-4134
▁ribbon	-4135
▁evening	-4136
▁ostrich	-4137
▁superhero	-4138
Did	-4139
▁mall	-4140
▁argue	-4141
▁plastic	-4142
▁putting	-4143
▁veterinarian	-4144
▁ranch	-4145
▁summer	-4146
low	-4147
▁pages	-4148
▁mustache	-4149
igi	-4150
adium	-4151
▁lawyer	-4152
▁chamber	-4153
▁matches	-4154
▁stadium	-4155
ations	-4156
▁spade	-4157
▁language	-4158
▁problems	-4159
▁Big	-4160
▁lic	-4161
▁forgave	-4162
sity	-4163
▁Pandy	-4164
▁meeting	-4165
▁panda	-4166
Ann	-4167
▁Hel	-4168
▁surprises	-4169
rmomet	-4170
▁lions	-4171
▁art	-4172
▁Kiki	-4173
▁spoil	-4174
▁shower	-4175
rmometer	-4176
▁reve	-4177
cuss	-4178
▁strip	-4179
▁slippery	-4180
▁V	-4181
▁meas	-4182
▁plates	-4183
▁saving	-4184
▁puddles	-4185
ecause	-4186
▁cared	-4187
▁Gigi	-4188
▁wre	-4189
▁fre	-4190
▁x	-4191
ero	-4192
▁reveal	-4193
ected	-4194
▁pair	-4195
▁discuss	-4196
▁surrender	-4197
▁rac	-4198
▁admired	-4199
iture	-4200
urniture	-4201
▁mystery	-4202
▁weap	-4203
▁sadly	-4204
▁infant	-4205
▁license	-4206
▁furniture	-4207
▁Bubbles	-4208
▁prepare	-4209
▁sticker	-4210
▁thermometer	-4211
Your	-4212
▁choice	-4213
▁gro	-4214
▁delay	-4215
▁thumb	-4216
▁supply	-4217
▁prevent	-4218
▁pup	-4219
▁ignore	-4220
▁cur	-4221
▁float	-4222
▁raise	-4223
▁appl	-4224
▁restore	-4225
▁Pa	-4226
▁Charl	-4227
▁replace	-4228
▁socks	-4229
▁throwing	-4230
▁port	-4231
▁shovel	-4232
▁Ow	-4233
mend	-4234
▁beg	-4235
▁yield	-4236
▁favour	-4237
▁brightly	-4238
Yay	-4239
Anna	-4240
▁rained	-4241
▁handed	-4242
▁pushing	-4243
bor	-4244
ommend	-4245
▁kneel	-4246
▁recommend	-4247
▁fresh	-4248
▁menu	-4249
▁wreck	-4250
▁regret	-4251
▁chairs	-4252
▁player	-4253
▁shone	-4254
▁favourite	-4255
▁Lilly	-4256
▁doors	-4257
▁excitedly	-4258
▁apol	-4259
▁barks	-4260
▁harbor	-4261
▁country	-4262
vet	-4263
▁provide	-4264
▁reminded	-4265
▁Under	-4266
▁Paul	-4267
▁sneezed	-4268
▁Zoomy	-4269
▁brighter	-4270
aud	-4271
▁thanks	-4272
▁pulls	-4273
cast	-4274
imed	-4275
▁drain	-4276
▁apolog	-4277
..	-4278
▁human	-4279
▁sudden	-4280
ari	-4281
▁claw	-4282
▁Speedy	-4283
▁vac	-4284
▁Hoppy	-4285
▁sniffed	-4286
▁wigg	-4287
elcome	-4288
▁hoping	-4289
▁softly	-4290
▁navy	-4291
▁sandcast	-4292
iday	-4293
▁dear	-4294
▁aw	-4295
▁tip	-4296
▁copper	-4297
▁bend	-4298
▁older	-4299
▁colourful	-4300
cer	-4301
▁wine	-4302
Mia	-4303
eor	-4304
▁Sk	-4305
Yuck	-4306
▁laught	-4307
▁rushed	-4308
▁Olive	-4309
▁breat	-4310
▁sunr	-4311
▁letting	-4312
▁laughter	-4313
icer	-4314
▁unh	-4315
▁Danny	-4316
▁clapping	-4317
One	-4318
▁Bee	-4319
▁dare	-4320
▁panic	-4321
▁shivering	-4322
▁weapon	-4323
▁proudly	-4324
ement	-4325
▁ended	-4326
▁shoulder	-4327
▁pushes	-4328
▁sunrise	-4329
▁heads	-4330
▁giggle	-4331
▁hol	-4332
ricane	-4333
▁kinds	-4334
▁holiday	-4335
▁poppy	-4336
▁breaks	-4337
icky	-4338
▁enter	-4339
▁score	-4340
chan	-4341
▁meowed	-4342
▁jogged	-4343
▁castles	-4344
▁delighted	-4345
▁dishes	-4346
▁freeze	-4347
▁examine	-4348
▁applaud	-4349
▁Geor	-4350
▁courage	-4351
▁sprayed	-4352
▁universe	-4353
▁repeat	-4354
▁leak	-4355
▁shakes	-4356
Ready	-4357
▁points	-4358
▁suffer	-4359
▁unhappy	-4360
▁vacation	-4361
▁Charlie	-4362
▁splashing	-4363
acked	-4364
▁mineral	-4365
▁Or	-4366
▁sticky	-4367
wards	-4368
▁rooms	-4369
▁keeping	-4370
▁pirates	-4371
▁row	-4372
▁smells	-4373
▁somewhere	-4374
▁university	-4375
▁Annie	-4376
▁Would	-4377
▁steel	-4378
▁Fox	-4379
▁dem	-4380
▁coats	-4381
▁flies	-4382
▁feelings	-4383
▁skill	-4384
▁horses	-4385
cond	-4386
▁George	-4387
▁Ab	-4388
▁second	-4389
▁planes	-4390
quest	-4391
▁hurricane	-4392
erc	-4393
chanic	-4394
▁throws	-4395
▁bouncing	-4396
▁trusted	-4397
▁shrugged	-4398
oe	-4399
▁punish	-4400
▁chickens	-4401
lex	-4402
▁Sque	-4403
▁sigh	-4404
▁demand	-4405
▁observe	-4406
ince	-4407
▁ener	-4408
▁pigs	-4409
▁settle	-4410
▁End	-4411
▁content	-4412
▁mechanic	-4413
▁Snowy	-4414
▁tracks	-4415
▁crossed	-4416
isty	-4417
▁Ted	-4418
▁poison	-4419
▁mass	-4420
men	-4421
▁yawned	-4422
▁request	-4423
▁sandcastle	-4424
apping	-4425
▁invit	-4426
▁upstairs	-4427
thm	-4428
hythm	-4429
▁seas	-4430
▁stud	-4431
▁scold	-4432
▁flood	-4433
▁prunes	-4434
▁drops	-4435
▁marbles	-4436
▁Help	-4437
▁equ	-4438
▁rush	-4439
▁eaten	-4440
▁sport	-4441
▁bumped	-4442
▁raining	-4443
▁paid	-4444
▁exerc	-4445
▁shopkeeper	-4446
▁hist	-4447
▁event	-4448
▁alive	-4449
▁history	-4450
ges	-4451
▁Sm	-4452
mare	-4453
▁badly	-4454
▁Sophie	-4455
▁Alex	-4456
▁mention	-4457
▁heat	-4458
▁warn	-4459
▁greedy	-4460
▁rabbits	-4461
▁Grace	-4462
▁sparkled	-4463
enry	-4464
▁snugg	-4465
▁stomach	-4466
▁checked	-4467
iggly	-4468
ween	-4469
▁nation	-4470
▁easily	-4471
▁streng	-4472
▁news	-4473
▁Joey	-4474
▁Henry	-4475
▁between	-4476
▁starting	-4477
▁bother	-4478
▁writing	-4479
▁tour	-4480
▁claws	-4481
▁given	-4482
▁cherry	-4483
▁expect	-4484
▁minute	-4485
▁insisted	-4486
▁strength	-4487
▁myself	-4488
inking	-4489
▁safari	-4490
▁nightmare	-4491
▁chirp	-4492
▁spots	-4493
otten	-4494
▁blueberry	-4495
▁impressed	-4496
reat	-4497
▁toe	-4498
ippy	-4499
▁increase	-4500
▁squeezed	-4501
▁Zara	-4502
▁parts	-4503
▁Penny	-4504
▁prayed	-4505
quake	-4506
▁blowing	-4507
▁leather	-4508
ib	-4509
▁Elly	-4510
▁prune	-4511
▁buzz	-4512
▁waving	-4513
▁imagination	-4514
▁Su	-4515
▁rhythm	-4516
xygen	-4517
▁flapped	-4518
heart	-4519
▁soak	-4520
▁twisty	-4521
▁snowball	-4522
year	-4523
▁See	-4524
▁introduce	-4525
Qu	-4526
▁offer	-4527
▁scoop	-4528
▁hills	-4529
▁spike	-4530
Lucy	-4531
ipment	-4532
▁equipment	-4533
▁sir	-4534
reeze	-4535
▁twisted	-4536
▁believed	-4537
▁scratch	-4538
▁Kate	-4539
▁Sandy	-4540
▁stair	-4541
▁Bounce	-4542
▁racing	-4543
▁pitch	-4544
▁explored	-4545
▁calls	-4546
▁energy	-4547
▁nobody	-4548
ially	-4549
izes	-4550
spec	-4551
▁lemonade	-4552
▁earthquake	-4553
▁daisy	-4554
▁below	-4555
▁Ros	-4556
▁ignored	-4557
▁pedal	-4558
▁puzzles	-4559
▁whistled	-4560
▁Coco	-4561
▁placed	-4562
specially	-4563
▁gaz	-4564
▁lemons	-4565
▁floated	-4566
▁sweetheart	-4567
▁Owl	-4568
▁burned	-4569
▁tug	-4570
uct	-4571
mble	-4572
resses	-4573
▁Pinky	-4574
▁beans	-4575
▁yucky	-4576
▁bouncy	-4577
▁include	-4578
cery	-4579
noon	-4580
▁Have	-4581
▁cheek	-4582
▁Squeaky	-4583
▁grocery	-4584
▁afternoon	-4585
▁slap	-4586
▁massage	-4587
▁Harry	-4588
▁Maria	-4589
▁pulling	-4590
▁especially	-4591
▁apart	-4592
▁strawberries	-4593
▁sty	-4594
▁luck	-4595
▁brain	-4596
▁wisdom	-4597
Sh	-4598
▁yawn	-4599
▁Finny	-4600
▁entered	-4601
▁tremble	-4602
▁hopes	-4603
▁Froggy	-4604
▁Mill	-4605
▁hearts	-4606
▁permit	-4607
▁wags	-4608
▁mailman	-4609
▁Lucky	-4610
ores	-4611
tain	-4612
▁furt	-4613
eration	-4614
▁buried	-4615
▁bears	-4616
▁shined	-4617
▁cape	-4618
▁strike	-4619
▁follows	-4620
laimed	-4621
▁dresses	-4622
▁Finn	-4623
ittens	-4624
▁Bluey	-4625
▁beauty	-4626
▁ing	-4627
emember	-4628
▁planned	-4629
▁Whenever	-4630
hest	-4631
unday	-4632
▁palm	-4633
▁blood	-4634
▁Pip	-4635
riage	-4636
▁Sunday	-4637
▁network	-4638
▁winning	-4639
▁comf	-4640
arnt	-4641
ffic	-4642
▁conf	-4643
▁urge	-4644
redient	-4645
▁deeper	-4646
▁learnt	-4647
▁exclaimed	-4648
▁Rock	-4649
▁further	-4650
▁ingredient	-4651
▁warning	-4652
Bob	-4653
▁chores	-4654
▁Is	-4655
▁moves	-4656
▁backpack	-4657
nce	-4658
Sara	-4659
hood	-4660
▁image	-4661
▁attention	-4662
▁pur	-4663
▁candles	-4664
▁sew	-4665
▁Good	-4666
▁Mittens	-4667
▁Sharing	-4668
mm	-4669
▁Liz	-4670
▁baking	-4671
▁Who	-4672
Welcome	-4673
▁acorns	-4674
▁zigzag	-4675
▁sailing	-4676
▁recognize	-4677
▁digg	-4678
▁James	-4679
▁vroom	-4680
apa	-4681
▁mama	-4682
▁struggle	-4683
▁Ro	-4684
▁pad	-4685
▁closely	-4686
▁underground	-4687
ecting	-4688
▁licks	-4689
▁digging	-4690
▁solved	-4691
▁teaching	-4692
Woof	-4693
etch	-4694
ived	-4695
▁jazz	-4696
▁crash	-4697
▁seats	-4698
▁traffic	-4699
▁exercise	-4700
anges	-4701
▁folded	-4702
▁oxygen	-4703
▁balan	-4704
▁Millie	-4705
▁following	-4706
isses	-4707
▁exit	-4708
▁chewed	-4709
▁kisses	-4710
edn	-4711
▁scrat	-4712
ednesday	-4713
▁dressed	-4714
▁elephants	-4715
look	-4716
▁growled	-4717
▁tide	-4718
▁planted	-4719
▁Wednesday	-4720
▁oh	-4721
oral	-4722
▁May	-4723
▁whisper	-4724
ories	-4725
▁quite	-4726
ops	-4727
▁weight	-4728
▁encourage	-4729
▁invitation	-4730
▁worms	-4731
▁marriage	-4732
▁tomatoes	-4733
▁vanished	-4734
▁Mag	-4735
▁quietly	-4736
▁washing	-4737
▁Everything	-4738
▁operation	-4739
▁Tony	-4740
▁hits	-4741
▁exper	-4742
▁gifts	-4743
▁fireworks	-4744
ddy	-4745
▁Rosie	-4746
rec	-4747
▁cub	-4748
▁peanuts	-4749
▁snuggled	-4750
▁ingredients	-4751
▁rang	-4752
ups	-4753
▁hon	-4754
▁heel	-4755
▁dared	-4756
▁seeing	-4757
▁Dog	-4758
va	-4759
▁Baby	-4760
▁agre	-4761
▁hers	-4762
▁mice	-4763
▁worth	-4764
▁ble	-4765
▁sprink	-4766
▁captain	-4767
▁price	-4768
▁brings	-4769
▁breathe	-4770
▁married	-4771
▁reaches	-4772
▁Tu	-4773
▁simp	-4774
▁Wiggly	-4775
ccer	-4776
▁hadn	-4777
▁dried	-4778
▁paused	-4779
▁creatures	-4780
▁Tuna	-4781
▁blink	-4782
▁memory	-4783
▁Tuesday	-4784
▁Dr	-4785
Because	-4786
▁ideas	-4787
▁soccer	-4788
looking	-4789
sed	-4790
ux	-4791
ucked	-4792
▁resp	-4793
▁blankets	-4794
▁shouting	-4795
do	-4796
pted	-4797
▁wob	-4798
▁fallen	-4799
▁prints	-4800
reci	-4801
▁snail	-4802
▁flap	-4803
▁gazed	-4804
▁style	-4805
unately	-4806
▁counter	-4807
To	-4808
▁hurting	-4809
▁pillows	-4810
▁Me	-4811
▁First	-4812
▁plays	-4813
▁difference	-4814
▁appear	-4815
uxu	-4816
These	-4817
▁fash	-4818
▁Tilly	-4819
▁printer	-4820
▁sizes	-4821
▁appreci	-4822
▁jogging	-4823
▁forgotten	-4824
▁worse	-4825
Will	-4826
ecture	-4827
▁pinched	-4828
▁release	-4829
▁neighbour	-4830
ifi	-4831
▁Jul	-4832
▁treasures	-4833
And	-4834
▁Papa	-4835
▁wagging	-4836
▁sorts	-4837
▁lecture	-4838
▁scolded	-4839
▁accepted	-4840
ips	-4841
ipping	-4842
▁memories	-4843
▁Each	-4844
▁manage	-4845
▁raised	-4846
▁fro	-4847
▁petals	-4848
▁An	-4849
▁Fifi	-4850
▁inst	-4851
▁muddy	-4852
▁signs	-4853
▁climbs	-4854
▁eagerly	-4855
▁snapped	-4856
▁punished	-4857
bing	-4858
▁landscape	-4859
▁tong	-4860
▁during	-4861
▁skills	-4862
▁sliding	-4863
▁Ru	-4864
▁fashion	-4865
▁watered	-4866
▁Out	-4867
▁prett	-4868
▁attached	-4869
▁glo	-4870
right	-4871
▁Uncle	-4872
▁celebrated	-4873
▁acted	-4874
▁bones	-4875
▁bricks	-4876
▁nowhere	-4877
▁wandered	-4878
▁destroyed	-4879
▁bowed	-4880
gie	-4881
uxury	-4882
▁baked	-4883
▁tremb	-4884
urprise	-4885
▁vanish	-4886
▁crow	-4887
▁Slow	-4888
▁receive	-4889
▁selling	-4890
▁sorting	-4891
Yum	-4892
▁ours	-4893
▁pears	-4894
▁trave	-4895
▁easier	-4896
▁shot	-4897
▁stitch	-4898
▁disagree	-4899
▁Che	-4900
house	-4901
▁King	-4902
▁scattered	-4903
▁Pr	-4904
▁muscles	-4905
▁catching	-4906
▁received	-4907
▁God	-4908
orted	-4909
aped	-4910
chie	-4911
▁pies	-4912
ssible	-4913
▁shouldn	-4914
umes	-4915
▁emer	-4916
▁web	-4917
▁lung	-4918
▁twirled	-4919
umble	-4920
▁cutting	-4921
Meow	-4922
lvet	-4923
▁pets	-4924
▁famil	-4925
Goodbye	-4926
▁velvet	-4927
▁costumes	-4928
▁welcomed	-4929
▁gloves	-4930
ishing	-4931
omeday	-4932
Surprise	-4933
▁weeping	-4934
▁potatoes	-4935
▁marching	-4936
▁Mo	-4937
▁allow	-4938
raged	-4939
▁Moral	-4940
▁cartoons	-4941
▁cakes	-4942
▁oranges	-4943
▁measured	-4944
choo	-4945
▁Kat	-4946
▁luxury	-4947
▁kicking	-4948
▁relaxed	-4949
▁toes	-4950
▁bleed	-4951
▁fetch	-4952
▁visited	-4953
Not	-4954
ester	-4955
▁bites	-4956
esterday	-4957
iers	-4958
ising	-4959
▁fishing	-4960
▁understanding	-4961
sters	-4962
▁firef	-4963
▁zipped	-4964
medi	-4965
▁tore	-4966
mediately	-4967
▁kingdom	-4968
▁straight	-4969
Ha	-4970
▁mouths	-4971
▁someday	-4972
▁unlocked	-4973
une	-4974
▁ruin	-4975
▁sits	-4976
▁since	-4977
▁shed	-4978
icing	-4979
▁Ruby	-4980
▁herbs	-4981
▁golden	-4982
▁soldiers	-4983
▁Clara	-4984
▁These	-4985
▁bur	-4986
▁kitty	-4987
▁voices	-4988
fortunately	-4989
▁isn	-4990
▁tongue	-4991
▁shadows	-4992
kins	-4993
▁Ste	-4994
▁Both	-4995
▁lined	-4996
▁Toto	-4997
▁meow	-4998
▁stuffed	-4999
▁melted	-5000
▁simple	-5001
▁cras	-5002
▁trapped	-5003
eep	-5004
▁vict	-5005
▁Spark	-5006
▁patterns	-5007
▁Boo	-5008
▁drinking	-5009
▁stro	-5010
▁created	-5011
▁floating	-5012
▁zero	-5013
▁collected	-5014
sit	-5015
osed	-5016
▁none	-5017
▁spoons	-5018
▁Wally	-5019
▁waist	-5020
▁jewels	-5021
▁collection	-5022
Ok	-5023
",	-5024
▁urged	-5025
bers	-5026
▁Hop	-5027
▁lily	-5028
▁olives	-5029
▁remained	-5030
▁succeeded	-5031
▁Smith	-5032
▁whistling	-5033
▁stealing	-5034
▁slice	-5035
▁drinks	-5036
▁winner	-5037
▁esc	-5038
▁twink	-5039
▁begged	-5040
aded	-5041
▁bak	-5042
▁grin	-5043
▁spit	-5044
▁Maggie	-5045
▁peaches	-5046
▁waffles	-5047
▁sneak	-5048
▁Bo	-5049
▁Rocky	-5050
▁tonight	-5051
▁playtime	-5052
ety	-5053
▁Din	-5054
▁cones	-5055
▁lands	-5056
▁Pepper	-5057
ah	-5058
▁pra	-5059
▁opin	-5060
▁result	-5061
▁ago	-5062
▁bang	-5063
▁hurried	-5064
▁skipping	-5065
▁disagreed	-5066
▁bye	-5067
▁known	-5068
▁rested	-5069
▁season	-5070
▁studied	-5071
cus	-5072
ction	-5073
▁Happy	-5074
▁supposed	-5075
abies	-5076
please	-5077
▁grant	-5078
'.	-5079
anna	-5080
ents	-5081
▁brus	-5082
▁writ	-5083
▁watches	-5084
▁Milly	-5085
▁victory	-5086
▁encouraged	-5087
▁six	-5088
▁Suzy	-5089
▁Chicky	-5090
▁muffins	-5091
▁ordered	-5092
rr	-5093
▁beds	-5094
▁brid	-5095
▁melting	-5096
▁fed	-5097
▁ringing	-5098
▁presents	-5099
ther	-5100
▁west	-5101
▁theirs	-5102
▁wiggle	-5103
▁sip	-5104
▁flat	-5105
▁appro	-5106
▁roots	-5107
▁emergen	-5108
▁printed	-5109
vest	-5110
▁twigs	-5111
▁kneeled	-5112
Mr	-5113
▁El	-5114
▁surround	-5115
▁mentioned	-5116
▁rul	-5117
ishes	-5118
▁pupil	-5119
▁breaking	-5120
▁experience	-5121
Amy	-5122
▁crunch	-5123
▁threat	-5124
▁bridges	-5125
▁Gr	-5126
▁Dav	-5127
▁achie	-5128
▁ladyb	-5129
▁babies	-5130
▁highest	-5131
▁screams	-5132
ission	-5133
▁shock	-5134
▁fields	-5135
▁safety	-5136
▁lets	-5137
▁permission	-5138
▁decorations	-5139
▁However	-5140
akes	-5141
▁waits	-5142
▁soaked	-5143
▁guessed	-5144
▁immediately	-5145
▁Qu	-5146
▁nails	-5147
▁breeze	-5148
▁colours	-5149
ored	-5150
irring	-5151
▁pearl	-5152
▁works	-5153
▁headed	-5154
▁Slowly	-5155
▁Something	-5156
!",	-5157
ship	-5158
izing	-5159
▁lick	-5160
▁bravely	-5161
▁sparkle	-5162
▁stamps	-5163
▁touching	-5164
Next	-5165
▁mixing	-5166
▁burning	-5167
▁amazement	-5168
▁Sky	-5169
▁beamed	-5170
▁alright	-5171
▁Ho	-5172
oved	-5173
ring	-5174
Really	-5175
▁David	-5176
▁ripped	-5177
sing	-5178
▁escaped	-5179
▁teasing	-5180
zing	-5181
Little	-5182
▁lines	-5183
▁warmth	-5184
▁Star	-5185
▁strang	-5186
▁moments	-5187
Mmm	-5188
▁Dino	-5189
▁lips	-5190
▁Ava	-5191
▁sore	-5192
▁answers	-5193
▁settled	-5194
▁scratched	-5195
▁Frank	-5196
▁Hope	-5197
▁importance	-5198
▁pupp	-5199
▁draws	-5200
▁ladybug	-5201
▁turning	-5202
▁eats	-5203
▁chewing	-5204
▁contest	-5205
▁perfectly	-5206
boo	-5207
▁soared	-5208
▁stirring	-5209
▁emergency	-5210
▁Not	-5211
▁piles	-5212
▁setting	-5213
▁girls	-5214
int	-5215
▁east	-5216
▁matched	-5217
▁strangers	-5218
▁includ	-5219
▁Follow	-5220
▁slapped	-5221
▁Unfortunately	-5222
▁guy	-5223
▁ruler	-5224
▁invest	-5225
▁zooming	-5226
▁Car	-5227
igate	-5228
▁dads	-5229
▁si	-5230
walk	-5231
▁broom	-5232
▁curled	-5233
▁tucked	-5234
▁sorted	-5235
▁tastes	-5236
utter	-5237
▁wooden	-5238
▁Someone	-5239
▁recorded	-5240
▁hi	-5241
ides	-5242
▁Joy	-5243
▁instr	-5244
▁Rabbit	-5245
▁tickle	-5246
▁revealed	-5247
▁admir	-5248
▁cuddled	-5249
▁investigate	-5250
ids	-5251
▁dot	-5252
▁rides	-5253
▁youth	-5254
▁area	-5255
▁wink	-5256
▁mister	-5257
▁sidewalk	-5258
▁Its	-5259
▁item	-5260
▁keys	-5261
▁served	-5262
▁praised	-5263
▁families	-5264
▁Am	-5265
ding	-5266
▁paints	-5267
▁measuring	-5268
iggy	-5269
isten	-5270
▁scrub	-5271
▁hated	-5272
▁sings	-5273
▁Stitch	-5274
▁firemen	-5275
▁appreciate	-5276
Or	-5277
Kitty	-5278
▁foods	-5279
▁Zigzag	-5280
▁writes	-5281
▁crunchy	-5282
▁Mat	-5283
izard	-5284
▁Beep	-5285
▁prop	-5286
▁keeps	-5287
▁siren	-5288
▁Friend	-5289
▁bringing	-5290
▁monsters	-5291
ales	-5292
allen	-5293
osity	-5294
▁tickets	-5295
▁Chr	-5296
▁vet	-5297
▁quack	-5298
▁hen	-5299
▁laid	-5300
▁officer	-5301
act	-5302
▁glowed	-5303
▁sisters	-5304
▁neighborhood	-5305
▁nicer	-5306
▁Bouncy	-5307
▁challen	-5308
▁boom	-5309
▁chef	-5310
▁silence	-5311
▁disturbed	-5312
▁trembling	-5313
zen	-5314
▁Jess	-5315
▁inch	-5316
▁scaring	-5317
ena	-5318
indy	-5319
▁tex	-5320
affes	-5321
antly	-5322
▁loose	-5323
▁pride	-5324
▁texture	-5325
▁yelling	-5326
▁dinosaurs	-5327
ays	-5328
Happy	-5329
▁anytime	-5330
▁resting	-5331
▁crawling	-5332
▁giraffes	-5333
▁powers	-5334
▁downstairs	-5335
aved	-5336
▁rubbing	-5337
▁Nan	-5338
▁sneaky	-5339
▁gust	-5340
▁wizard	-5341
▁opinion	-5342
▁Katie	-5343
imy	-5344
▁twin	-5345
▁frozen	-5346
▁poking	-5347
▁wonders	-5348
▁prepared	-5349
▁studying	-5350
▁Beh	-5351
▁Spl	-5352
ities	-5353
▁hesit	-5354
▁leader	-5355
▁secrets	-5356
unnies	-5357
▁Abig	-5358
▁remem	-5359
▁respons	-5360
▁sprinkles	-5361
▁apologized	-5362
▁Jam	-5363
▁mittens	-5364
▁remembers	-5365
▁Zoe	-5366
▁Stop	-5367
▁Pippa	-5368
▁tricked	-5369
▁repeated	-5370
ira	-5371
▁Hippy	-5372
▁owned	-5373
▁weighed	-5374
▁shopping	-5375
ues	-5376
▁fut	-5377
hello	-5378
▁Zero	-5379
▁Behind	-5380
▁motion	-5381
▁Abigail	-5382
▁bunnies	-5383
▁napping	-5384
▁spaceship	-5385
▁recognized	-5386
▁grey	-5387
▁future	-5388
▁wanting	-5389
▁Sad	-5390
▁oat	-5391
▁crumb	-5392
▁seems	-5393
▁tugged	-5394
▁snowballs	-5395
▁collecting	-5396
▁crashed	-5397
▁sparkling	-5398
Boo	-5399
Would	-5400
▁slimy	-5401
▁sneaked	-5402
Jo	-5403
She	-5404
▁Did	-5405
▁Frog	-5406
▁flav	-5407
▁noon	-5408
▁marks	-5409
▁acting	-5410
▁decides	-5411
▁grinned	-5412
▁happiest	-5413
▁possible	-5414
rs	-5415
▁dire	-5416
▁Steve	-5417
▁claps	-5418
▁frost	-5419
▁horns	-5420
▁thrill	-5421
▁spraying	-5422
ped	-5423
When	-5424
▁kindly	-5425
▁Bug	-5426
▁goals	-5427
▁struck	-5428
▁bleeding	-5429
▁naps	-5430
▁pedals	-5431
Remember	-5432
▁brushed	-5433
▁cracked	-5434
▁sweeties	-5435
▁Bree	-5436
▁beat	-5437
▁woof	-5438
▁comple	-5439
▁catches	-5440
▁Aunt	-5441
▁approached	-5442
▁strings	-5443
▁decorated	-5444
▁Kay	-5445
achel	-5446
▁peel	-5447
▁During	-5448
▁gained	-5449
▁hissed	-5450
▁behaved	-5451
ien	-5452
▁splashes	-5453
▁X	-5454
▁pause	-5455
▁chases	-5456
!'	-5457
▁Ray	-5458
▁crabs	-5459
▁petted	-5460
▁balancing	-5461
▁stretching	-5462
Have	-5463
▁comfy	-5464
▁Rachel	-5465
▁worker	-5466
▁bloomed	-5467
▁pebbles	-5468
▁frosting	-5469
ogo	-5470
▁Dare	-5471
▁Luck	-5472
▁brushes	-5473
▁tallest	-5474
▁agreement	-5475
Ch	-5476
▁swims	-5477
ha	-5478
edding	-5479
▁buckets	-5480
▁rocking	-5481
▁awe	-5482
▁eff	-5483
▁Keep	-5484
▁sides	-5485
▁Splash	-5486
▁Luckily	-5487
oys	-5488
ided	-5489
Somet	-5490
▁lied	-5491
▁beard	-5492
▁poems	-5493
▁Birdie	-5494
▁diving	-5495
▁stripes	-5496
▁organizing	-5497
Sally	-5498
▁beside	-5499
▁radishes	-5500
▁obe	-5501
▁Lizzy	-5502
▁rocked	-5503
▁matching	-5504
▁traveled	-5505
▁paintings	-5506
oh	-5507
▁sting	-5508
▁hugging	-5509
▁whatever	-5510
▁polishing	-5511
elvet	-5512
▁Gogo	-5513
▁Julie	-5514
▁eight	-5515
▁knelt	-5516
▁contain	-5517
▁polished	-5518
▁Chew	-5519
▁trips	-5520
▁hardly	-5521
▁seesaw	-5522
▁packing	-5523
▁goodnight	-5524
▁Je	-5525
▁Jamie	-5526
▁Everyday	-5527
oming	-5528
▁obey	-5529
▁circus	-5530
▁wedding	-5531
cious	-5532
▁gaze	-5533
▁rust	-5534
▁safer	-5535
▁spending	-5536
▁discovery	-5537
urry	-5538
▁steep	-5539
▁Velvet	-5540
▁pastels	-5541
▁learns	-5542
▁loving	-5543
▁towels	-5544
▁sadness	-5545
▁scooped	-5546
allow	-5547
▁Because	-5548
▁ribbons	-5549
▁completed	-5550
Ah	-5551
▁By	-5552
mother	-5553
▁neighbors	-5554
Daddy	-5555
▁deser	-5556
▁eagle	-5557
▁loaded	-5558
▁parties	-5559
▁demanded	-5560
uke	-5561
fied	-5562
▁Fish	-5563
▁Sure	-5564
▁Green	-5565
▁doggy	-5566
▁struggled	-5567
ppers	-5568
▁Beth	-5569
▁kites	-5570
▁tails	-5571
▁Brownie	-5572
▁realize	-5573
▁continue	-5574
▁shooting	-5575
▁ourselves	-5576
jam	-5577
ley	-5578
▁Ad	-5579
sses	-5580
▁Mira	-5581
▁Catty	-5582
▁Robby	-5583
▁sighs	-5584
▁heroes	-5585
▁boo	-5586
▁limes	-5587
▁sausages	-5588
▁effort	-5589
▁pockets	-5590
▁protected	-5591
▁struggling	-5592
▁Water	-5593
▁keeper	-5594
▁decision	-5595
▁curiosity	-5596
isdom	-5597
▁dusty	-5598
▁Always	-5599
▁dipped	-5600
▁shirts	-5601
▁roaring	-5602
bie	-5603
▁Ol	-5604
Yummy	-5605
▁Ally	-5606
▁Hanna	-5607
▁dragged	-5608
▁planets	-5609
▁expected	-5610
▁surrounded	-5611
ords	-5612
▁dent	-5613
▁honk	-5614
▁united	-5615
▁precious	-5616
▁tim	-5617
▁roads	-5618
▁argued	-5619
▁smiley	-5620
▁removed	-5621
▁sunlight	-5622
▁Sun	-5623
▁Josh	-5624
▁bank	-5625
▁belly	-5626
▁buzzing	-5627
▁folding	-5628
▁wiggled	-5629
...	-5630
▁En	-5631
▁airpl	-5632
▁crumbs	-5633
▁purred	-5634
▁staying	-5635
▁admiring	-5636
▁scrubbed	-5637
▁buildings	-5638
▁Lou	-5639
▁Hoot	-5640
▁earl	-5641
▁gran	-5642
▁mane	-5643
▁stare	-5644
.'	-5645
Al	-5646
▁Jan	-5647
▁Being	-5648
▁Watch	-5649
▁chirped	-5650
▁Put	-5651
▁earlier	-5652
▁Dot	-5653
▁Like	-5654
▁teaches	-5655
▁destination	-5656
▁cuts	-5657
▁weeks	-5658
▁talent	-5659
▁Friends	-5660
▁achieve	-5661
▁visiting	-5662
use	-5663
Bird	-5664
▁Squ	-5665
▁Skip	-5666
▁joking	-5667
▁peered	-5668
▁company	-5669
▁thrilled	-5670
▁wherever	-5671
▁Two	-5672
▁pots	-5673
▁fears	-5674
▁bottles	-5675
Sometimes	-5676
▁sparkles	-5677
▁comforted	-5678
▁Remember	-5679
▁heav	-5680
▁third	-5681
▁darker	-5682
▁villag	-5683
▁magnets	-5684
▁opening	-5685
▁dolphins	-5686
▁For	-5687
▁rings	-5688
▁refres	-5689
▁teased	-5690
▁bedtime	-5691
▁knights	-5692
▁zookeeper	-5693
ern	-5694
John	-5695
▁Mad	-5696
▁argu	-5697
▁wins	-5698
▁masks	-5699
▁Anne	-5700
▁arrive	-5701
▁shivered	-5702
▁prettiest	-5703
▁responsible	-5704
Gra	-5705
ilo	-5706
▁shrug	-5707
▁movies	-5708
▁arguing	-5709
umm	-5710
▁wid	-5711
▁Olly	-5712
▁wires	-5713
▁contro	-5714
▁onwards	-5715
▁pretends	-5716
Mummy	-5717
▁begin	-5718
▁Wisdom	-5719
▁peppers	-5720
▁staring	-5721
▁shoulders	-5722
▁ma	-5723
▁sled	-5724
▁Hannah	-5725
▁soaring	-5726
▁playroom	-5727
▁ann	-5728
▁fasc	-5729
▁cubes	-5730
▁drives	-5731
▁dragons	-5732
▁apologize	-5733
▁Luke	-5734
▁flags	-5735
▁healed	-5736
▁spiders	-5737
▁machines	-5738
Uh	-5739
Achoo	-5740
uddles	-5741
▁pencils	-5742
▁yesterday	-5743
▁Lena	-5744
▁forgi	-5745
▁gotten	-5746
▁candies	-5747
▁creation	-5748
▁Abby	-5749
▁Rover	-5750
▁brand	-5751
▁exact	-5752
▁examined	-5753
▁reminder	-5754
Mum	-5755
ashed	-5756
▁logs	-5757
▁baker	-5758
▁Spring	-5759
▁granted	-5760
▁instruct	-5761
▁smallest	-5762
▁phot	-5763
▁cuddle	-5764
▁pastries	-5765
▁applauded	-5766
▁lollipops	-5767
▁Prin	-5768
▁roses	-5769
▁weren	-5770
▁challenge	-5771
▁quarreling	-5772
▁rele	-5773
▁Susan	-5774
▁twirl	-5775
▁mountains	-5776
▁screaming	-5777
▁villagers	-5778
▁grandmother	-5779
▁Cla	-5780
▁dam	-5781
▁rip	-5782
joyed	-5783
▁toss	-5784
▁fascin	-5785
▁actions	-5786
▁actually	-5787
▁overjoyed	-5788
▁Foxy	-5789
▁Earth	-5790
▁activ	-5791
▁crowd	-5792
▁videos	-5793
Fl	-5794
▁Milo	-5795
▁control	-5796
▁gathering	-5797
▁instructions	-5798
seek	-5799
uest	-5800
▁caut	-5801
lowers	-5802
▁whose	-5803
▁clowns	-5804
▁practicing	-5805
Stay	-5806
▁Thom	-5807
▁tasks	-5808
▁flutter	-5809
▁hitting	-5810
▁pouring	-5811
▁project	-5812
▁guest	-5813
▁Cuddles	-5814
▁patience	-5815
▁firefight	-5816
▁Moo	-5817
▁Matt	-5818
▁died	-5819
▁balanced	-5820
▁pumpkins	-5821
▁teamwork	-5822
die	-5823
anny	-5824
▁Dee	-5825
▁Fid	-5826
▁guns	-5827
▁Sorry	-5828
▁confl	-5829
▁doctors	-5830
▁exactly	-5831
▁fairies	-5832
▁workers	-5833
▁Nina	-5834
▁awake	-5835
▁wound	-5836
▁wrist	-5837
▁clearing	-5838
▁conflict	-5839
Run	-5840
loe	-5841
▁Bye	-5842
▁Our	-5843
▁situ	-5844
▁sticking	-5845
aster	-5846
jamas	-5847
▁Days	-5848
▁misses	-5849
▁neither	-5850
▁airplane	-5851
▁wondering	-5852
Silly	-5853
Watch	-5854
▁uses	-5855
Thanks	-5856
▁parked	-5857
▁stumble	-5858
▁Cra	-5859
▁Fido	-5860
▁cans	-5861
▁valued	-5862
▁blooming	-5863
▁prettier	-5864
▁requested	-5865
Ex	-5866
irm	-5867
ining	-5868
▁swoop	-5869
▁Thomas	-5870
Oops	-5871
▁Chloe	-5872
Ro	-5873
avi	-5874
▁Sw	-5875
anta	-5876
enty	-5877
▁Enjoy	-5878
▁promises	-5879
hee	-5880
▁Pl	-5881
▁Adam	-5882
▁Tara	-5883
▁Blink	-5884
▁Leave	-5885
▁adult	-5886
▁caused	-5887
▁snowmen	-5888
▁cheering	-5889
▁everyday	-5890
▁Ziggy	-5891
▁spong	-5892
▁timer	-5893
▁Jessie	-5894
▁photos	-5895
▁wasted	-5896
▁Princess	-5897
▁patiently	-5898
▁Mon	-5899
▁guys	-5900
▁padd	-5901
▁Jilly	-5902
▁bowls	-5903
▁seven	-5904
▁reaching	-5905
▁replaced	-5906
Ew	-5907
▁reply	-5908
▁helmets	-5909
▁introduc	-5910
▁lap	-5911
▁tune	-5912
▁outdo	-5913
▁stole	-5914
▁agrees	-5915
zes	-5916
Mama	-5917
▁Mix	-5918
▁fara	-5919
angled	-5920
▁kicks	-5921
▁faraway	-5922
▁rescued	-5923
▁usually	-5924
▁inviting	-5925
▁3-	-5926
inkle	-5927
▁rubs	-5928
▁Henny	-5929
▁observed	-5930
▁released	-5931
▁policeman	-5932
▁protecting	-5933
▁mes	-5934
▁accom	-5935
▁rolls	-5936
▁stays	-5937
▁ornaments	-5938
▁superheroes	-5939
dies	-5940
▁bunch	-5941
▁cough	-5942
▁items	-5943
▁scales	-5944
▁sponge	-5945
▁listens	-5946
▁pajamas	-5947
Today	-5948
Fluffy	-5949
▁alien	-5950
▁faced	-5951
▁wears	-5952
▁Claire	-5953
▁reluct	-5954
▁cautious	-5955
▁improved	-5956
▁complaining	-5957
▁Santa	-5958
▁Whist	-5959
▁crept	-5960
▁stern	-5961
▁sweat	-5962
go	-5963
ica	-5964
▁Sc	-5965
▁ast	-5966
▁sob	-5967
neath	-5968
▁piggy	-5969
▁chirping	-5970
▁1	-5971
nie	-5972
zie	-5973
▁peas	-5974
▁desert	-5975
▁accompl	-5976
▁filling	-5977
▁shelves	-5978
▁curtains	-5979
Fo	-5980
▁Dara	-5981
▁fault	-5982
▁insist	-5983
▁refuse	-5984
▁loading	-5985
▁becoming	-5986
▁remembering	-5987
Cat	-5988
ason	-5989
▁satis	-5990
▁puppet	-5991
▁sights	-5992
▁snakes	-5993
▁perched	-5994
▁included	-5995
brush	-5996
▁copy	-5997
▁Kayla	-5998
▁closes	-5999
▁signed	-6000
▁batteries	-6001
▁princesses	-6002
▁dots	-6003
▁firm	-6004
▁dentist	-6005
▁insects	-6006
ler	-6007
Just	-6008
icorn	-6009
▁bead	-6010
▁itchy	-6011
▁glitter	-6012
▁unicorn	-6013
▁sneezing	-6014
ners	-6015
▁Bop	-6016
▁blows	-6017
ky	-6018
▁unp	-6019
▁Quick	-6020
▁cause	-6021
▁biting	-6022
▁quacked	-6023
▁Ash	-6024
▁Nana	-6025
▁gems	-6026
▁outdoors	-6027
▁Dodo	-6028
▁Love	-6029
▁chips	-6030
▁adding	-6031
▁farther	-6032
▁supplies	-6033
▁triangles	-6034
Then	-6035
▁Jenna	-6036
▁Patch	-6037
▁squares	-6038
▁swooped	-6039
▁penguins	-6040
▁recording	-6041
▁reluctantly	-6042
tle	-6043
▁choo	-6044
▁drums	-6045
▁properly	-6046
▁complained	-6047
acob	-6048
▁Near	-6049
▁Want	-6050
▁slam	-6051
▁buzzed	-6052
▁giggling	-6053
aa	-6054
uly	-6055
endy	-6056
▁Yes	-6057
arter	-6058
esome	-6059
▁desp	-6060
Follow	-6061
▁Cindy	-6062
▁patted	-6063
▁remote	-6064
▁smarter	-6065
▁surface	-6066
▁Yesterday	-6067
▁explorers	-6068
▁fascinated	-6069
Fine	-6070
▁Ant	-6071
▁Jon	-6072
Great	-6073
▁pout	-6074
▁Suzie	-6075
▁wipes	-6076
▁marked	-6077
gers	-6078
▁avo	-6079
▁bows	-6080
▁tables	-6081
▁Whistle	-6082
cher	-6083
▁nine	-6084
▁pans	-6085
▁Mouse	-6086
▁curly	-6087
▁thorn	-6088
▁untie	-6089
Tw	-6090
Roar	-6091
cakes	-6092
anging	-6093
▁salty	-6094
▁groups	-6095
▁helpers	-6096
▁mission	-6097
▁tangled	-6098
▁yourselves	-6099
Shh	-6100
eed	-6101
..."	-6102
Those	-6103
▁Toot	-6104
▁comm	-6105
▁pins	-6106
▁Jacob	-6107
▁steady	-6108
?",	-6109
aws	-6110
▁unf	-6111
ences	-6112
ledge	-6113
▁Cara	-6114
▁Rolly	-6115
▁tires	-6116
▁rainco	-6117
▁awesome	-6118
▁rockets	-6119
▁homework	-6120
▁knowledge	-6121
▁introduced	-6122
▁neighbourhood	-6123
▁da	-6124
▁Mel	-6125
▁rule	-6126
▁stem	-6127
▁paddle	-6128
▁pointy	-6129
▁sweets	-6130
▁minerals	-6131
you	-6132
▁Get	-6133
itely	-6134
▁reads	-6135
▁usual	-6136
▁sobbed	-6137
▁swords	-6138
▁traded	-6139
▁bravery	-6140
▁jackets	-6141
▁tickled	-6142
▁Squirrel	-6143
▁passports	-6144
▁situation	-6145
abel	-6146
▁Lion	-6147
▁chefs	-6148
▁Oliver	-6149
▁ranger	-6150
▁Welcome	-6151
▁leaning	-6152
▁praying	-6153
▁creating	-6154
▁rainbows	-6155
eah	-6156
▁Els	-6157
▁Jeff	-6158
▁deal	-6159
▁noses	-6160
▁players	-6161
▁librarian	-6162
Le	-6163
Bad	-6164
ora	-6165
cuse	-6166
iggie	-6167
▁cous	-6168
▁jobs	-6169
▁ripe	-6170
▁truly	-6171
▁Grumpy	-6172
▁covers	-6173
▁matters	-6174
▁wobbled	-6175
▁underneath	-6176
vin	-6177
sequ	-6178
Tommy	-6179
▁bare	-6180
▁risk	-6181
Excuse	-6182
▁Jones	-6183
▁Julia	-6184
▁forks	-6185
▁hides	-6186
▁ropes	-6187
▁solut	-6188
▁consequ	-6189
▁passing	-6190
▁refreshed	-6191
fl	-6192
lled	-6193
Timmy	-6194
agull	-6195
though	-6196
▁beads	-6197
▁yells	-6198
▁onions	-6199
▁winked	-6200
▁Nothing	-6201
▁heavier	-6202
▁blocking	-6203
▁speaking	-6204
▁unpacked	-6205
Cl	-6206
iar	-6207
ctar	-6208
retch	-6209
▁Rain	-6210
▁skunk	-6211
▁nectar	-6212
▁Goodbye	-6213
▁wishing	-6214
▁restored	-6215
vers	-6216
▁Tree	-6217
▁vent	-6218
▁vowed	-6219
▁lighter	-6220
▁behaving	-6221
▁starfish	-6222
▁suitcase	-6223
▁confident	-6224
Hold	-6225
▁fact	-6226
▁dived	-6227
▁gears	-6228
▁swans	-6229
▁squeal	-6230
▁toaster	-6231
▁growling	-6232
▁warnings	-6233
▁delivered	-6234
▁Snap	-6235
▁Chris	-6236
▁Copper	-6237
▁slower	-6238
▁deserve	-6239
▁glasses	-6240
▁tunnels	-6241
Dog	-6242
Time	-6243
▁thro	-6244
▁greet	-6245
▁Biggie	-6246
▁Sophia	-6247
▁Twinkle	-6248
▁rotting	-6249
▁scarves	-6250
inda	-6251
▁cent	-6252
▁Dizzy	-6253
▁mater	-6254
▁dances	-6255
▁napkins	-6256
▁guessing	-6257
▁material	-6258
ody	-6259
ouch	-6260
oline	-6261
▁June	-6262
▁chat	-6263
▁arrows	-6264
▁spreading	-6265
▁Q	-6266
▁Po	-6267
indr	-6268
tuce	-6269
kelly	-6270
▁lungs	-6271
▁steer	-6272
▁singer	-6273
▁consequences	-6274
cky	-6275
hog	-6276
▁dar	-6277
▁Gina	-6278
▁fuzzy	-6279
▁feeding	-6280
▁leading	-6281
▁seagull	-6282
▁twisting	-6283
bly	-6284
Jack	-6285
▁Kids	-6286
▁Wink	-6287
▁bene	-6288
▁Sadly	-6289
▁knees	-6290
▁stain	-6291
▁Skelly	-6292
▁paying	-6293
▁raindr	-6294
▁throat	-6295
▁choices	-6296
▁separated	-6297
▁discovering	-6298
ados	-6299
▁Pam	-6300
▁Try	-6301
▁badge	-6302
▁refle	-6303
▁knocks	-6304
▁losing	-6305
▁lettuce	-6306
▁mushrooms	-6307
▁activities	-6308
sm	-6309
Yeah	-6310
anes	-6311
▁least	-6312
▁windy	-6313
▁prayer	-6314
▁decorating	-6315
coon	-6316
haust	-6317
itches	-6318
▁slips	-6319
▁mailed	-6320
▁figured	-6321
▁tractor	-6322
len	-6323
Listen	-6324
▁Betsy	-6325
▁Mikey	-6326
▁Snugg	-6327
▁bumpy	-6328
▁grows	-6329
▁wraps	-6330
▁relief	-6331
▁forehead	-6332
▁purr	-6333
▁Larry	-6334
▁avoid	-6335
▁kings	-6336
▁rainy	-6337
▁calmed	-6338
▁owners	-6339
▁partic	-6340
▁beneath	-6341
▁cobwebs	-6342
▁Snuggles	-6343
▁avocados	-6344
▁darkness	-6345
▁cautiously	-6346
aker	-6347
bric	-6348
lings	-6349
▁Duck	-6350
▁fires	-6351
▁joked	-6352
▁astron	-6353
▁behavi	-6354
▁entire	-6355
▁fabric	-6356
▁growls	-6357
▁exhaust	-6358
▁provided	-6359
▁scratches	-6360
irl	-6361
▁Rich	-6362
▁cowb	-6363
▁Laser	-6364
▁aimed	-6365
▁tipto	-6366
▁Peanut	-6367
▁flames	-6368
▁forgetting	-6369
▁sunflowers	-6370
fit	-6371
elle	-6372
▁Jay	-6373
▁uns	-6374
▁Bark	-6375
▁budge	-6376
▁Robbie	-6377
▁silent	-6378
▁Stretch	-6379
▁paddled	-6380
▁worries	-6381
▁necklaces	-6382
▁performed	-6383
▁pec	-6384
▁Crab	-6385
▁Stay	-6386
▁pens	-6387
▁Those	-6388
▁annoy	-6389
▁astronaut	-6390
▁competition	-6391
lee	-6392
rig	-6393
son	-6394
uzz	-6395
ingo	-6396
▁den	-6397
▁baths	-6398
▁freed	-6399
▁froze	-6400
▁meals	-6401
▁bakery	-6402
▁queens	-6403
▁stomped	-6404
▁changing	-6405
cl	-6406
band	-6407
bbie	-6408
▁barely	-6409
▁images	-6410
▁ruining	-6411
▁satisfied	-6412
▁completely	-6413
pr	-6414
ael	-6415
hile	-6416
▁Maya	-6417
▁chuck	-6418
▁spikes	-6419
▁Birthday	-6420
▁hedgehog	-6421
▁solution	-6422
▁interested	-6423
▁Zo	-6424
yond	-6425
▁scur	-6426
rigued	-6427
▁click	-6428
▁nests	-6429
▁Christ	-6430
▁beyond	-6431
▁bodies	-6432
▁cuddly	-6433
▁Jessica	-6434
▁kittens	-6435
▁crackers	-6436
▁startled	-6437
ueen	-6438
▁Woof	-6439
▁leap	-6440
▁thud	-6441
▁Wendy	-6442
▁genie	-6443
▁paths	-6444
▁sewed	-6445
▁talks	-6446
Grandma	-6447
▁Stella	-6448
▁puppies	-6449
▁seasons	-6450
▁planning	-6451
▁scurried	-6452
▁suffering	-6453
▁wandering	-6454
▁particular	-6455
iti	-6456
rrr	-6457
▁Ex	-6458
▁Up	-6459
isies	-6460
ichael	-6461
▁races	-6462
▁forgets	-6463
▁direction	-6464
▁accomplish	-6465
▁celebrating	-6466
▁Sof	-6467
▁Zoey	-6468
▁hops	-6469
▁impo	-6470
▁shops	-6471
▁stung	-6472
▁Doctor	-6473
▁Turtle	-6474
▁backed	-6475
▁seeker	-6476
▁Michael	-6477
▁camping	-6478
▁daisies	-6479
▁firefly	-6480
▁impossible	-6481
yes	-6482
▁Trust	-6483
▁month	-6484
▁buying	-6485
▁basement	-6486
▁exhausted	-6487
mas	-6488
rance	-6489
▁conn	-6490
▁cott	-6491
itched	-6492
▁borrowed	-6493
▁squealed	-6494
▁ventured	-6495
Our	-6496
ces	-6497
▁Rudy	-6498
▁Other	-6499
▁Queen	-6500
▁fever	-6501
▁mints	-6502
▁outfit	-6503
▁blocked	-6504
▁grabbing	-6505
▁raincoat	-6506
▁gri	-6507
▁Moon	-6508
▁bars	-6509
▁yelp	-6510
▁rains	-6511
▁tapped	-6512
▁Without	-6513
▁however	-6514
ept	-6515
pen	-6516
▁opp	-6517
▁repa	-6518
▁Davey	-6519
▁feast	-6520
▁twice	-6521
▁untied	-6522
▁sailors	-6523
▁slammed	-6524
▁twinkling	-6525
Bobo	-6526
▁Ball	-6527
▁Titi	-6528
▁bumps	-6529
▁hider	-6530
▁plain	-6531
▁rising	-6532
▁younger	-6533
▁repaired	-6534
▁hus	-6535
▁Hold	-6536
▁burst	-6537
▁suits	-6538
▁direct	-6539
▁guests	-6540
▁stolen	-6541
▁tricky	-6542
▁dancers	-6543
▁cushions	-6544
but	-6545
airy	-6546
boat	-6547
▁Ana	-6548
▁wow	-6549
vroom	-6550
▁cash	-6551
▁sway	-6552
▁swept	-6553
▁vines	-6554
▁cousin	-6555
▁snowfl	-6556
▁stroked	-6557
▁twinkle	-6558
▁celebration	-6559
▁countryside	-6560
hi	-6561
step	-6562
ppies	-6563
ustom	-6564
▁beam	-6565
▁liqu	-6566
▁scra	-6567
▁Bloom	-6568
▁muscle	-6569
▁slowed	-6570
▁touches	-6571
▁hesitated	-6572
oke	-6573
Some	-6574
iles	-6575
▁Ele	-6576
bbled	-6577
▁sale	-6578
▁wept	-6579
▁Janie	-6580
▁belts	-6581
▁lower	-6582
▁labels	-6583
▁poster	-6584
▁sniffs	-6585
▁thrown	-6586
▁frowning	-6587
Beep	-6588
erate	-6589
ibbit	-6590
▁Paws	-6591
▁ache	-6592
▁Abbie	-6593
▁Missy	-6594
▁sense	-6595
▁cheeks	-6596
▁custom	-6597
▁plenty	-6598
▁colored	-6599
▁husband	-6600
▁lending	-6601
▁poppies	-6602
▁backward	-6603
▁designed	-6604
▁entrance	-6605
▁rewarded	-6606
▁Christmas	-6607
▁determination	-6608
Rex	-6609
amb	-6610
Whee	-6611
cope	-6612
▁Ell	-6613
▁sib	-6614
▁Dani	-6615
▁wakes	-6616
▁lifting	-6617
▁reflection	-6618
?'	-6619
▁Ph	-6620
▁Pen	-6621
▁Pup	-6622
▁age	-6623
ummies	-6624
▁gross	-6625
▁mesmer	-6626
▁wiping	-6627
▁wobbly	-6628
▁stopping	-6629
▁twirling	-6630
▁ty	-6631
stick	-6632
▁Nick	-6633
▁chop	-6634
▁pours	-6635
▁dollars	-6636
▁tummies	-6637
▁chuckled	-6638
▁students	-6639
aren	-6640
ishy	-6641
▁wee	-6642
▁Mabel	-6643
▁marker	-6644
▁reason	-6645
▁dollhouse	-6646
▁Ma	-6647
uing	-6648
using	-6649
▁spat	-6650
▁Quack	-6651
▁indeed	-6652
▁written	-6653
▁printing	-6654
▁imagining	-6655
od	-6656
Take	-6657
rink	-6658
rious	-6659
▁camel	-6660
▁films	-6661
▁leads	-6662
▁lifts	-6663
▁liquid	-6664
▁softer	-6665
▁sparks	-6666
▁zebras	-6667
▁zipping	-6668
▁flapping	-6669
▁raindrops	-6670
ans	-6671
iam	-6672
osty	-6673
▁Fire	-6674
▁seals	-6675
▁screws	-6676
▁trembled	-6677
▁shrinking	-6678
nk	-6679
▁Wo	-6680
ades	-6681
izon	-6682
▁Lia	-6683
obody	-6684
▁Emmy	-6685
▁shoo	-6686
▁tiss	-6687
▁prove	-6688
▁Frosty	-6689
▁horizon	-6690
▁somebody	-6691
▁beginning	-6692
▁supported	-6693
▁performing	-6694
ho	-6695
ters	-6696
uess	-6697
▁snat	-6698
▁clues	-6699
▁Listen	-6700
▁Rollie	-6701
▁colder	-6702
▁pecked	-6703
▁robber	-6704
▁siblings	-6705
▁regretted	-6706
▁strongest	-6707
▁directions	-6708
no	-6709
ita	-6710
▁Lau	-6711
▁Izzy	-6712
▁honked	-6713
▁stands	-6714
▁cashier	-6715
▁watering	-6716
▁creations	-6717
arac	-6718
uppy	-6719
▁Tia	-6720
itude	-6721
ivity	-6722
onies	-6723
▁fins	-6724
▁sank	-6725
▁pouted	-6726
▁needles	-6727
▁sending	-6728
▁streets	-6729
▁blinking	-6730
▁dropping	-6731
▁intrigued	-6732
▁surprising	-6733
▁storekeeper	-6734
igers	-6735
▁coup	-6736
▁Jackie	-6737
▁tissue	-6738
▁flavors	-6739
▁objects	-6740
▁peeking	-6741
▁forgiving	-6742
▁increased	-6743
▁creativity	-6744
aying	-6745
▁lamb	-6746
▁lent	-6747
ertain	-6748
▁Karen	-6749
▁Linda	-6750
▁bells	-6751
▁Robert	-6752
▁charac	-6753
▁damage	-6754
▁flavor	-6755
▁tipped	-6756
▁wobble	-6757
▁willing	-6758
ives	-6759
▁Ali	-6760
▁Woo	-6761
ility	-6762
▁Jump	-6763
▁glued	-6764
▁icing	-6765
▁spins	-6766
▁tramp	-6767
▁couple	-6768
▁health	-6769
▁sharks	-6770
▁corners	-6771
▁shovels	-6772
▁tiptoed	-6773
▁Elephant	-6774
▁sailboat	-6775
▁bracelets	-6776
▁everybody	-6777
▁including	-6778
▁squeezing	-6779
Tr	-6780
Moo	-6781
dri	-6782
yan	-6783
Like	-6784
ammy	-6785
▁dod	-6786
▁Farm	-6787
▁ties	-6788
▁Chewy	-6789
▁Laura	-6790
▁waiter	-6791
▁handful	-6792
▁trampoline	-6793
▁accomplishment	-6794
illed	-6795
▁Only	-6796
▁pays	-6797
▁Marie	-6798
▁loops	-6799
▁donkey	-6800
▁ponies	-6801
▁robots	-6802
▁rotten	-6803
▁scored	-6804
▁shaped	-6805
▁squeak	-6806
▁tigers	-6807
▁pigeons	-6808
▁symbols	-6809
▁widened	-6810
▁bandages	-6811
▁encourag	-6812
wk	-6813
eal	-6814
eds	-6815
oga	-6816
▁Fu	-6817
ashes	-6818
immer	-6819
▁Herb	-6820
▁Take	-6821
Always	-6822
▁Along	-6823
▁Cathy	-6824
▁rusty	-6825
▁laying	-6826
▁sewing	-6827
▁unsure	-6828
▁darling	-6829
▁hopeful	-6830
▁vanilla	-6831
▁swimsuit	-6832
▁recommended	-6833
immy	-6834
▁mer	-6835
▁Ryan	-6836
▁coop	-6837
▁angels	-6838
▁artist	-6839
▁Tweetie	-6840
▁crossing	-6841
jo	-6842
een	-6843
Lila	-6844
weed	-6845
Quack	-6846
iding	-6847
izzie	-6848
▁hawk	-6849
Ribbit	-6850
▁Willy	-6851
▁stool	-6852
▁pleasure	-6853
▁Ang	-6854
▁Mina	-6855
urtles	-6856
▁Farmer	-6857
▁seaweed	-6858
▁scooters	-6859
▁paintbrush	-6860
ggy	-6861
rac	-6862
alph	-6863
iece	-6864
nies	-6865
child	-6866
freeze	-6867
igning	-6868
▁Nobody	-6869
▁Sparky	-6870
▁waking	-6871
▁delivering	-6872
▁performance	-6873
Bl	-6874
cho	-6875
▁Sl	-6876
eese	-6877
ading	-6878
angle	-6879
▁fits	-6880
▁among	-6881
▁tying	-6882
▁counts	-6883
▁single	-6884
▁spills	-6885
▁thorns	-6886
▁warmer	-6887
▁turtles	-6888
▁screwdri	-6889
▁talented	-6890
▁preparing	-6891
▁firefighter	-6892
Mine	-6893
▁Exc	-6894
itted	-6895
print	-6896
▁grip	-6897
▁Ralph	-6898
▁sweep	-6899
▁Lizzie	-6900
▁rather	-6901
▁pennies	-6902
aven	-6903
▁Todd	-6904
▁echo	-6905
▁sped	-6906
▁swall	-6907
▁stroke	-6908
▁drawers	-6909
▁haircuts	-6910
▁whispers	-6911
▁swallowed	-6912
▁grandchild	-6913
Put	-6914
Jump	-6915
Very	-6916
▁Meg	-6917
▁Rel	-6918
while	-6919
▁Rita	-6920
▁glee	-6921
▁Bally	-6922
▁stored	-6923
▁tested	-6924
▁hearing	-6925
▁respond	-6926
▁seconds	-6927
▁singers	-6928
▁snatched	-6929
▁Afterwards	-6930
▁disturbing	-6931
▁Sim	-6932
▁Yet	-6933
ivery	-6934
▁fart	-6935
▁Shelly	-6936
▁recipe	-6937
▁rumble	-6938
▁slices	-6939
▁source	-6940
▁heading	-6941
▁backwards	-6942
▁2	-6943
bird	-6944
▁Cow	-6945
▁crew	-6946
▁pops	-6947
▁drawn	-6948
▁geese	-6949
▁maker	-6950
▁Excited	-6951
▁cleaner	-6952
▁drivers	-6953
▁farthest	-6954
▁sweetest	-6955
Sn	-6956
Get	-6957
rom	-6958
▁det	-6959
artha	-6960
▁coug	-6961
▁earn	-6962
▁bulbs	-6963
▁buses	-6964
▁ships	-6965
▁Maddie	-6966
▁Martha	-6967
▁grocer	-6968
▁napped	-6969
iversity	-6970
▁pinching	-6971
▁suffered	-6972
▁curiously	-6973
▁sprinkled	-6974
▁mosquitoes	-6975
atur	-6976
ntil	-6977
▁aff	-6978
lling	-6979
▁Patty	-6980
▁polar	-6981
umbling	-6982
▁Flappy	-6983
▁hotter	-6984
▁temper	-6985
▁Snowman	-6986
▁longest	-6987
▁lipstick	-6988
▁politely	-6989
▁encouraging	-6990
▁screwdriver	-6991
▁Mean	-6992
▁Time	-6993
▁Wise	-6994
▁Fuzzy	-6995
▁Mindy	-6996
▁Zippy	-6997
▁anger	-6998
▁plans	-6999
▁hangers	-7000
▁squishy	-7001
uel	-7002
Keep	-7003
▁Mic	-7004
▁bits	-7005
▁Until	-7006
▁blown	-7007
▁creamy	-7008
▁Although	-7009
▁delivery	-7010
▁forgiven	-7011
▁vehicles	-7012
▁Meanwhile	-7013
▁neighbours	-7014
▁Ar	-7015
▁arr	-7016
▁bru	-7017
Buddy	-7018
Vroom	-7019
vered	-7020
▁Bess	-7021
▁Yoga	-7022
▁darl	-7023
▁fills	-7024
▁firmly	-7025
▁giggles	-7026
▁presses	-7027
▁darlings	-7028
▁familiar	-7029
hew	-7030
▁Back	-7031
▁Stan	-7032
▁Honey	-7033
▁cloudy	-7034
▁melons	-7035
▁stitches	-7036
▁wrapping	-7037
▁Hug	-7038
▁moo	-7039
▁Maisy	-7040
▁Simon	-7041
▁secure	-7042
▁flipped	-7043
▁healing	-7044
▁pedaled	-7045
▁raccoon	-7046
▁achieved	-7047
▁bothered	-7048
▁pancakes	-7049
▁worrying	-7050
▁groceries	-7051
▁Te	-7052
ably	-7053
fall	-7054
iley	-7055
▁Gab	-7056
isions	-7057
▁Bones	-7058
▁Maddy	-7059
▁glitt	-7060
▁knots	-7061
▁spies	-7062
pecting	-7063
▁Daniel	-7064
▁frowns	-7065
▁passen	-7066
▁pupils	-7067
▁burying	-7068
▁hallway	-7069
▁tighter	-7070
▁overcome	-7071
▁slipping	-7072
▁repeating	-7073
▁firefighters	-7074
▁elf	-7075
▁Gary	-7076
▁Ruth	-7077
▁Beaky	-7078
▁crowns	-7079
▁magnif	-7080
▁rivers	-7081
▁reversed	-7082
▁twinkled	-7083
▁afterwards	-7084
kend	-7085
▁Ron	-7086
▁def	-7087
▁dip	-7088
ently	-7089
▁jars	-7090
▁Barky	-7091
▁aside	-7092
▁burnt	-7093
▁shown	-7094
▁Mother	-7095
▁weekend	-7096
▁surfboard	-7097
▁travelled	-7098
▁gracefully	-7099
▁yum	-7100
▁hour	-7101
▁insp	-7102
▁plot	-7103
▁Fairy	-7104
▁Holly	-7105
▁Kelly	-7106
▁express	-7107
▁markers	-7108
▁coloured	-7109
▁dripping	-7110
▁handsome	-7111
▁Everybody	-7112
▁magazines	-7113
ca	-7114
bell	-7115
▁aud	-7116
▁die	-7117
▁nur	-7118
▁und	-7119
ilted	-7120
ments	-7121
▁Robo	-7122
▁Tess	-7123
▁flip	-7124
▁Lenny	-7125
▁cells	-7126
▁locks	-7127
▁Granny	-7128
▁cheers	-7129
▁puzzled	-7130
▁ignoring	-7131
▁materials	-7132
▁respected	-7133
▁treehouse	-7134
▁Kit	-7135
▁Amel	-7136
▁Mixy	-7137
▁mate	-7138
▁todd	-7139
▁Dotty	-7140
▁Puppy	-7141
▁Ricky	-7142
▁Sadie	-7143
▁Since	-7144
▁elbow	-7145
▁loses	-7146
▁Blinky	-7147
▁braver	-7148
▁wisely	-7149
▁beloved	-7150
▁yielded	-7151
▁relaxing	-7152
▁decisions	-7153
ecca	-7154
onna	-7155
osen	-7156
tock	-7157
zoom	-7158
▁Zee	-7159
ibble	-7160
▁Loop	-7161
▁beeh	-7162
▁chip	-7163
▁exce	-7164
▁puff	-7165
▁Jolly	-7166
▁merry	-7167
▁spits	-7168
▁banged	-7169
▁chosen	-7170
▁wiggly	-7171
▁certain	-7172
▁designs	-7173
▁instrum	-7174
▁soaking	-7175
▁hesitant	-7176
▁resisted	-7177
--	-7178
On	-7179
awn	-7180
▁Cu	-7181
form	-7182
llen	-7183
▁Flo	-7184
▁unw	-7185
Doggy	-7186
Hurry	-7187
arrow	-7188
▁ends	-7189
▁notes	-7190
▁sails	-7191
▁teams	-7192
▁audience	-7193
▁panicked	-7194
▁speeding	-7195
▁surroundings	-7196
Fin	-7197
oni	-7198
rat	-7199
rey	-7200
asty	-7201
▁Tri	-7202
▁cor	-7203
Guess	-7204
Leave	-7205
▁Inky	-7206
▁aren	-7207
▁clue	-7208
▁Chess	-7209
▁Speed	-7210
▁gonna	-7211
▁tubes	-7212
▁wrink	-7213
▁amount	-7214
▁combed	-7215
▁explod	-7216
▁Sparkle	-7217
▁beehive	-7218
▁joining	-7219
▁breathed	-7220
▁temperature	-7221
erm	-7222
line	-7223
▁Man	-7224
▁ais	-7225
First	-7226
▁Show	-7227
▁wadd	-7228
▁miles	-7229
▁stomp	-7230
▁center	-7231
▁sprang	-7232
▁tossed	-7233
▁lessons	-7234
▁mixture	-7235
▁smashed	-7236
▁brushing	-7237
▁rescuing	-7238
▁discussed	-7239
▁mesmerized	-7240
?!"	-7241
▁Se	-7242
Kids	-7243
mies	-7244
rier	-7245
▁Isn	-7246
▁Sil	-7247
ipper	-7248
▁Elle	-7249
▁peck	-7250
ounced	-7251
▁Buggy	-7252
▁haird	-7253
▁roars	-7254
▁cowboy	-7255
▁daring	-7256
▁sweaty	-7257
▁damaged	-7258
▁figures	-7259
▁doorbell	-7260
▁gardener	-7261
▁quarreled	-7262
▁apologised	-7263
▁astronauts	-7264
fly	-7265
isc	-7266
▁Bra	-7267
▁Eva	-7268
▁Poor	-7269
▁flown	-7270
▁neare	-7271
▁scamp	-7272
▁spice	-7273
▁potion	-7274
immering	-7275
▁reminds	-7276
▁surfing	-7277
▁characters	-7278
▁5	-7279
omb	-7280
Bang	-7281
beep	-7282
ousy	-7283
usty	-7284
▁Roo	-7285
▁inj	-7286
▁Nice	-7287
▁germ	-7288
▁gest	-7289
▁lies	-7290
▁nuzz	-7291
▁sill	-7292
▁Nancy	-7293
▁disob	-7294
▁risks	-7295
▁tweet	-7296
▁greeted	-7297
▁believing	-7298
▁playhouse	-7299
▁peacefully	-7300
▁encouragement	-7301
rup	-7302
▁sy	-7303
Open	-7304
Zoom	-7305
▁Des	-7306
▁Say	-7307
ratul	-7308
▁dump	-7309
▁mast	-7310
▁Fishy	-7311
▁Momma	-7312
▁Thanks	-7313
▁flight	-7314
▁months	-7315
▁proper	-7316
ongratul	-7317
▁annoyed	-7318
▁prayers	-7319
▁bicycles	-7320
▁covering	-7321
▁magician	-7322
▁planting	-7323
▁smelling	-7324
▁thoughts	-7325
▁finishing	-7326
▁languages	-7327
▁reminding	-7328
▁unpacking	-7329
▁understands	-7330
'."	-7331
Dear	-7332
llas	-7333
▁Win	-7334
▁Eliz	-7335
▁Elsie	-7336
▁backs	-7337
▁files	-7338
▁reass	-7339
▁snaps	-7340
ighting	-7341
▁crashing	-7342
▁switched	-7343
▁fluttered	-7344
▁snowflakes	-7345
lied	-7346
opes	-7347
▁bam	-7348
Which	-7349
andas	-7350
cused	-7351
retty	-7352
▁Flop	-7353
▁Mint	-7354
▁plug	-7355
▁rats	-7356
abelle	-7357
oodles	-7358
parent	-7359
▁Mousy	-7360
▁merma	-7361
Alright	-7362
▁peeled	-7363
▁sports	-7364
▁yelped	-7365
▁baskets	-7366
▁benches	-7367
▁closing	-7368
▁despite	-7369
▁engines	-7370
▁gobbled	-7371
▁pleaded	-7372
▁results	-7373
▁umbrellas	-7374
▁destroying	-7375
the	-7376
▁ev	-7377
agic	-7378
bage	-7379
▁Bri	-7380
▁Jet	-7381
orter	-7382
▁puck	-7383
▁rays	-7384
▁rows	-7385
▁yumm	-7386
ighing	-7387
prints	-7388
▁Flick	-7389
▁Sofia	-7390
▁Tweety	-7391
▁crawls	-7392
▁stacked	-7393
▁tasting	-7394
▁nervously	-7395
▁newspapers	-7396
▁punishment	-7397
▁Fe	-7398
▁Ke	-7399
▁Ne	-7400
ears	-7401
ipes	-7402
found	-7403
▁Elsa	-7404
▁Jojo	-7405
▁Cally	-7406
▁Still	-7407
▁goats	-7408
▁munch	-7409
▁weeds	-7410
ientist	-7411
▁grassy	-7412
▁spells	-7413
urrender	-7414
▁focused	-7415
▁mommies	-7416
▁quieter	-7417
▁scientist	-7418
▁enthusiasm	-7419
Too	-7420
▁Cr	-7421
ilda	-7422
▁Fel	-7423
Quick	-7424
▁char	-7425
▁Gabby	-7426
▁Share	-7427
▁guide	-7428
▁zooms	-7429
▁action	-7430
▁pandas	-7431
▁toward	-7432
▁Freddie	-7433
▁Outside	-7434
▁freedom	-7435
▁manners	-7436
▁serving	-7437
▁behavior	-7438
▁supplied	-7439
▁grandparent	-7440
So	-7441
▁Cro	-7442
▁rus	-7443
Tweet	-7444
igger	-7445
steps	-7446
▁Desp	-7447
▁Okay	-7448
▁Phil	-7449
▁Toys	-7450
▁worn	-7451
unched	-7452
▁Jonny	-7453
▁Ready	-7454
▁cares	-7455
▁marsh	-7456
▁Shadow	-7457
▁bamboo	-7458
▁beeped	-7459
▁within	-7460
▁wounds	-7461
▁Rainbow	-7462
▁bravest	-7463
▁testing	-7464
▁toddler	-7465
▁Reliable	-7466
▁knocking	-7467
▁scampered	-7468
▁discussing	-7469
',	-7470
Un	-7471
▁Gl	-7472
Boys	-7473
ddie	-7474
▁Judy	-7475
▁Make	-7476
▁bubb	-7477
▁swap	-7478
▁Jacky	-7479
▁Piggy	-7480
▁bully	-7481
▁final	-7482
▁manag	-7483
▁sever	-7484
▁Silver	-7485
▁Taking	-7486
▁bitten	-7487
▁checks	-7488
▁master	-7489
▁onward	-7490
▁seller	-7491
▁Curious	-7492
▁bathing	-7493
▁dresser	-7494
▁gesture	-7495
▁treated	-7496
▁tricycle	-7497
▁backpacks	-7498
▁envelopes	-7499
▁footsteps	-7500
Pl	-7501
Hmm	-7502
Blue	-7503
fire	-7504
iona	-7505
rect	-7506
▁sou	-7507
▁curl	-7508
▁tuck	-7509
mallow	-7510
▁Fiona	-7511
▁force	-7512
▁minds	-7513
▁pound	-7514
▁wrigg	-7515
▁knives	-7516
▁William	-7517
▁several	-7518
▁10	-7519
▁Hor	-7520
▁hoo	-7521
oring	-7522
udged	-7523
▁adds	-7524
▁clip	-7525
▁Berry	-7526
▁Sleep	-7527
▁blast	-7528
▁erase	-7529
▁faded	-7530
▁fleas	-7531
▁joins	-7532
▁laces	-7533
▁sandy	-7534
▁floors	-7535
▁minded	-7536
▁runner	-7537
▁visits	-7538
▁changes	-7539
▁licking	-7540
▁tearing	-7541
▁uniforms	-7542
▁permitted	-7543
acy	-7544
rap	-7545
rie	-7546
Choo	-7547
Jane	-7548
crow	-7549
inny	-7550
▁Min	-7551
▁goo	-7552
Billy	-7553
dding	-7554
unity	-7555
▁cons	-7556
▁ease	-7557
▁hiss	-7558
▁leapt	-7559
▁Ashley	-7560
▁Monkey	-7561
▁burrow	-7562
▁failed	-7563
▁humans	-7564
▁inches	-7565
▁Another	-7566
▁causing	-7567
▁plucked	-7568
▁scraped	-7569
▁sneezes	-7570
▁probably	-7571
▁realizes	-7572
▁rustling	-7573
▁University	-7574
Does	-7575
wise	-7576
▁Abi	-7577
▁Bad	-7578
▁Bon	-7579
▁caw	-7580
▁spy	-7581
antha	-7582
order	-7583
roken	-7584
uffin	-7585
▁Joan	-7586
▁Becky	-7587
▁Chick	-7588
▁Eddie	-7589
▁Moppy	-7590
▁bride	-7591
▁sacks	-7592
▁squaw	-7593
▁whimp	-7594
ilities	-7595
▁dreamt	-7596
▁tilted	-7597
▁twists	-7598
▁whales	-7599
▁clicked	-7600
▁correct	-7601
▁lowered	-7602
▁noodles	-7603
▁travels	-7604
▁Fighting	-7605
▁coloring	-7606
▁explains	-7607
▁sniffing	-7608
▁sweaters	-7609
▁bothering	-7610
▁aeroplanes	-7611
▁scattering	-7612
▁marshmallow	-7613
Find	-7614
Mimi	-7615
asha	-7616
▁limp	-7617
▁sets	-7618
▁Felix	-7619
▁Nurse	-7620
▁Start	-7621
▁edges	-7622
▁focus	-7623
▁purrs	-7624
▁wider	-7625
▁echoed	-7626
▁fights	-7627
▁gazing	-7628
▁washes	-7629
▁Despite	-7630
▁delayed	-7631
▁oysters	-7632
▁Samantha	-7633
▁grandson	-7634
▁newfound	-7635
▁accidents	-7636
▁scarecrow	-7637
▁terrified	-7638
▁suggestion	-7639
▁throughout	-7640
cc	-7641
Nice	-7642
elope	-7643
ition	-7644
▁scen	-7645
▁Angel	-7646
▁Truck	-7647
▁snuck	-7648
attered	-7649
▁Amelia	-7650
▁adults	-7651
▁attack	-7652
▁collap	-7653
▁simply	-7654
▁Flutter	-7655
▁address	-7656
▁carries	-7657
▁drifted	-7658
▁nodding	-7659
▁picnics	-7660
▁toolbox	-7661
Goodnight	-7662
▁spoonful	-7663
▁teachers	-7664
▁hairdress	-7665
▁footprints	-7666
Em	-7667
ana	-7668
▁Ot	-7669
ails	-7670
atty	-7671
what	-7672
▁evil	-7673
▁mood	-7674
▁sens	-7675
▁trot	-7676
Friend	-7677
broken	-7678
cutter	-7679
undred	-7680
▁Bingo	-7681
▁Gerry	-7682
▁Gilly	-7683
▁Grand	-7684
▁drift	-7685
▁necks	-7686
▁pills	-7687
▁squir	-7688
▁cracks	-7689
▁nurses	-7690
▁Frankie	-7691
▁breaths	-7692
▁mermaid	-7693
▁purpose	-7694
▁solving	-7695
▁stamped	-7696
▁Penelope	-7697
▁business	-7698
▁dressing	-7699
▁whistles	-7700
▁breathing	-7701
▁admiration	-7702
Wake	-7703
bbit	-7704
▁occ	-7705
▁Heli	-7706
▁Katy	-7707
▁Ruff	-7708
▁Well	-7709
▁Zack	-7710
▁form	-7711
ashing	-7712
▁Megan	-7713
▁nasty	-7714
▁posit	-7715
▁shady	-7716
▁stall	-7717
▁Muffin	-7718
▁battle	-7719
▁neatly	-7720
▁scoops	-7721
▁shares	-7722
▁shines	-7723
▁shorter	-7724
▁responded	-7725
▁nightmares	-7726
▁grandparents	-7727
In	-7728
All	-7729
Big	-7730
hel	-7731
▁Fa	-7732
oosh	-7733
▁Cle	-7734
▁Fly	-7735
▁Gus	-7736
▁ill	-7737
ighty	-7738
▁bomb	-7739
▁defe	-7740
iscuit	-7741
▁Biggy	-7742
▁Judge	-7743
▁matey	-7744
▁meows	-7745
▁taped	-7746
▁calmly	-7747
▁charge	-7748
▁height	-7749
▁nibble	-7750
▁orders	-7751
▁scolds	-7752
▁Playing	-7753
▁honking	-7754
▁cupcakes	-7755
▁opinions	-7756
▁demanding	-7757
▁belongings	-7758
▁friendships	-7759
▁hairdresser	-7760
po	-7761
sol	-7762
▁Nut	-7763
▁Tre	-7764
▁Viv	-7765
▁Waff	-7766
▁ouch	-7767
▁Amber	-7768
▁Sasha	-7769
▁bless	-7770
Someone	-7771
▁scares	-7772
▁bellies	-7773
▁encount	-7774
▁shinier	-7775
▁waddled	-7776
▁wasting	-7777
▁arranged	-7778
▁steering	-7779
▁brightest	-7780
▁stretches	-7781
▁fluttering	-7782
▁whispering	-7783
▁surrendered	-7784
▁appreciation	-7785
ulp	-7786
irac	-7787
rons	-7788
vant	-7789
▁odd	-7790
Bunny	-7791
Magic	-7792
verse	-7793
▁Kevin	-7794
▁antic	-7795
▁tests	-7796
▁aprons	-7797
▁models	-7798
▁storms	-7799
▁stroll	-7800
▁unable	-7801
▁warmly	-7802
▁Thunder	-7803
▁bounces	-7804
▁efforts	-7805
▁robbers	-7806
▁talents	-7807
▁campfire	-7808
▁birdhouse	-7809
▁Ag	-7810
▁Im	-7811
Brrr	-7812
▁Baa	-7813
▁Jax	-7814
▁gap	-7815
▁Step	-7816
▁Wolf	-7817
▁surv	-7818
romise	-7819
▁aware	-7820
▁burns	-7821
▁strum	-7822
aturday	-7823
▁cotton	-7824
▁except	-7825
▁cheated	-7826
▁hundred	-7827
▁sternly	-7828
▁student	-7829
▁thicker	-7830
▁forgives	-7831
▁inspired	-7832
▁squeaked	-7833
▁Annabelle	-7834
▁springing	-7835
▁chocolates	-7836
▁questioned	-7837
▁scratching	-7838
▁woodcutter	-7839
Pe	-7840
Sw	-7841
bu	-7842
mel	-7843
Luna	-7844
aned	-7845
hell	-7846
oger	-7847
otte	-7848
rest	-7849
rily	-7850
▁Set	-7851
▁baa	-7852
Daisy	-7853
ening	-7854
▁decl	-7855
▁rout	-7856
▁flips	-7857
covered	-7858
▁Hallow	-7859
▁becomes	-7860
▁cottage	-7861
▁disobey	-7862
▁rushing	-7863
▁Saturday	-7864
▁trusting	-7865
▁Halloween	-7866
▁rewarding	-7867
▁waterfall	-7868
▁automobiles	-7869
▁heartbroken	-7870
.'"	-7871
▁Oh	-7872
issa	-7873
acles	-7874
rench	-7875
▁Navy	-7876
▁cond	-7877
▁Brian	-7878
▁Eliza	-7879
▁Never	-7880
▁hoops	-7881
▁playd	-7882
▁reapp	-7883
▁teles	-7884
▁Bonnie	-7885
▁Pretty	-7886
▁Spirit	-7887
▁shrank	-7888
▁weighs	-7889
▁cuddles	-7890
▁doorway	-7891
▁plugged	-7892
▁driveway	-7893
▁experien	-7894
▁journeys	-7895
▁packages	-7896
▁watermel	-7897
▁Charlotte	-7898
▁behaviour	-7899
▁connected	-7900
▁telescope	-7901
▁toothbrush	-7902
Try	-7903
ots	-7904
▁Ju	-7905
aint	-7906
byes	-7907
five	-7908
mine	-7909
ptop	-7910
quet	-7911
▁App	-7912
▁Mae	-7913
▁aim	-7914
▁swo	-7915
Every	-7916
ellow	-7917
mates	-7918
▁Oliv	-7919
▁Yawn	-7920
▁caps	-7921
▁deed	-7922
▁	-7923
e	-7924
a	-7925
t	-7926
o	-7927
h	-7928
n	-7929
d	-7930
i	-7931
s	-7932
r	-7933
l	-7934
y	-7935
m	-7936
.	-7937
w	-7938
u	-7939
p	-7940
g	-7941
c	-7942
b	-7943
f	-7944
,	-7945
k	-7946
T	-7947
"	-7948
v	-7949
S	-7950
H	-7951
I	-7952
O	-7953
'	-7954
L	-7955
!	-7956
B	-7957
x	-7958
M	-7959
A	-7960
W	-7961
j	-7962
?	-7963
Y	-7964
z	-7965
J	-7966
F	-7967
D	-7968
C	-7969
q	-7970
N	-7971
E	-7972
K	-7973
P	-7974
G	-7975
R	-7976
-	-7977
:	-7978
Z	-7979
V	-7980
U	-7981
3	-7982
;	-7983
Q	-7984
X	-7985
1	-7986
0	-7987
2	-7988
5	-7989
4	-7990
9	-7991
6	-7992
8	-7993
$	-7994
7	-7995
